<pad>	0
<unk>	0
<s>	0
</s>	0
<mask>	0
▁the	-3.04405
.	-3.29163
,	-3.32778
▁of	-3.51146
▁and	-3.80434
▁	-3.96381
ed	-4.179
▁to	-4.19982
s	-4.34841
▁with	-4.3707
▁a	-4.37835
ing	-4.44535
▁in	-4.46226
▁"	-4.5308
▁by	-4.82891
▁is	-5.00876
▁was	-5.06423
▁like	-5.14395
▁I	-5.15753
▁Rama	-5.16804
▁his	-5.21114
▁Hanuman	-5.2142
y	-5.22361
▁you	-5.24793
▁not	-5.36979
▁on	-5.37734
d	-5.4457
▁(	-5.45366
'	-5.47399
A	-5.4882
▁be	-5.50061
▁who	-5.54376
▁The	-5.54414
▁her	-5.57151
▁Sita	-5.57318
▁for	-5.57821
▁me	-5.58576
▁as	-5.61498
▁will	-5.6256
▁'	-5.63445
O	-5.66146
▁he	-5.69384
▁Ravana	-5.75647
▁that	-5.76092
n	-5.77027
)	-5.79137
▁all	-5.79463
e	-5.81637
▁my	-5.82167
NDA	-5.88365
▁at	-5.89516
▁this	-5.91264
ly	-5.92403
▁from	-5.94087
ir	-5.96269
▁your	-5.96655
▁were	-5.99993
▁are	-6.02569
▁it	-6.04655
▁great	-6.06977
▁demons	-6.08552
I	-6.0887
▁him	-6.0969
t	-6.10187
K	-6.10393
have	-6.12687
?	-6.18263
▁king	-6.20918
▁has	-6.2438
▁vanaras	-6.25723
ng	-6.29758
▁He	-6.29843
▁mountain	-6.33038
▁an	-6.33112
▁up	-6.38297
▁or	-6.43489
r	-6.45906
st	-6.46551
▁look	-6.46687
▁Lanka	-6.51333
▁can	-6.51471
▁am	-6.53365
▁which	-6.54427
▁lady	-6.54551
▁one	-6.54568
▁lord	-6.55253
▁S	-6.55668
▁vanara	-6.56919
▁over	-6.59961
▁amo	-6.60684
▁saw	-6.61286
en	-6.61715
▁It	-6.62652
▁again	-6.6326
:	-6.64373
▁even	-6.65537
had	-6.65712
▁some	-6.66089
▁see	-6.6828
▁she	-6.6835
▁words	-6.70251
▁son	-6.70875
).	-6.74467
▁ocean	-6.75141
▁them	-6.75921
able	-6.76819
▁monkey	-6.77025
▁Th	-6.77282
Y	-6.80224
▁sky	-6.80926
▁Sugriva	-6.8119
▁You	-6.81199
▁if	-6.81236
▁A	-6.81244
▁th	-6.8189
▁about	-6.82154
▁beautiful	-6.82619
ous	-6.83481
er	-6.86205
se	-6.86796
▁monkeys	-6.88745
▁eyes	-6.88927
▁city	-6.89114
▁trees	-6.89471
▁hav	-6.8996
▁fire	-6.89967
▁Windgod	-6.90852
▁O	-6.911
▁said	-6.91943
▁s	-6.92035
The	-6.92935
▁demon	-6.93499
▁down	-6.9512
anda	-6.96003
▁Lakshmana	-6.97112
▁no	-6.97212
▁Then	-7.01222
▁here	-7.01311
▁do	-7.02635
▁form	-7.02978
▁Sundarak	-7.03038
▁there	-7.03312
us	-7.06104
▁appeared	-7.06819
▁She	-7.07528
▁though	-7.0775
▁un	-7.08447
out	-7.08555
▁into	-7.09057
▁well	-7.09154
f	-7.09194
▁Indra	-7.10579
▁sage	-7.10665
▁man	-7.11766
▁gods	-7.13381
▁any	-7.13566
▁also	-7.14266
▁women	-7.15243
▁mind	-7.15371
▁body	-7.15726
▁grief	-7.16235
▁B	-7.1649
▁would	-7.16618
▁first	-7.17059
a	-7.17326
▁time	-7.17403
th	-7.1856
▁out	-7.19883
U	-7.21199
▁husband	-7.21457
▁co	-7.21924
▁place	-7.23803
▁Valmiki	-7.23925
▁ends	-7.24562
You	-7.24946
]	-7.25337
▁[	-7.25364
DH	-7.25367
yana	-7.25461
▁Au	-7.25464
▁Sun	-7.2555
▁Pla	-7.25778
▁war	-7.26596
▁powerful	-7.26905
KI	-7.27304
▁Gu	-7.28072
to	-7.28852
▁killed	-7.29208
▁speed	-7.2992
▁know	-7.3031
▁other	-7.30731
▁strength	-7.32248
▁garden	-7.32754
▁fear	-7.33384
▁another	-7.34789
▁does	-7.34831
▁mighty	-7.34904
▁tree	-7.35608
▁reach	-7.37196
al	-7.37384
Hanuman	-7.37789
▁army	-7.38092
▁long	-7.38135
▁T	-7.38382
'.	-7.38754
▁its	-7.40075
▁c	-7.40594
▁face	-7.41358
▁power	-7.4139
▁There	-7.42304
after	-7.42698
▁Moon	-7.43066
▁when	-7.43281
▁On	-7.44224
"	-7.44579
is	-7.4478
▁high	-7.44884
▁huge	-7.4491
▁heard	-7.45015
very	-7.45088
ga	-7.45601
rough	-7.4563
▁life	-7.46348
▁noble	-7.46699
▁flowers	-7.46944
▁come	-7.472
▁hol	-7.47948
▁gold	-7.48442
▁spoke	-7.48497
▁golden	-7.48608
▁arrows	-7.48721
▁elephant	-7.49258
▁ogresses	-7.4945
rga	-7.50024
▁Vaidehi	-7.5036
▁seeing	-7.50555
▁sa	-7.50893
▁earth	-7.52333
▁daughter	-7.52385
▁while	-7.52458
▁looking	-7.52683
▁ogres	-7.52742
▁wind	-7.52824
▁wife	-7.53783
▁valour	-7.54215
▁birds	-7.54325
o	-7.55307
▁give	-7.55476
▁anger	-7.56291
S	-7.56446
▁others	-7.56631
▁clouds	-7.57033
▁back	-7.57827
▁water	-7.58234
▁heroic	-7.58258
▁stood	-7.58451
▁sea	-7.58655
H	-7.58838
may	-7.58927
made	-7.59131
▁sorrow	-7.59219
▁auspicious	-7.59316
▁lotus	-7.60463
▁Kan	-7.61006
es	-7.61095
filled	-7.61524
▁should	-7.62377
▁palace	-7.62472
▁just	-7.62539
▁red	-7.63056
▁ha	-7.63112
▁tail	-7.63492
▁way	-7.64071
▁hearing	-7.64452
▁enemies	-7.6456
L	-7.64647
ment	-7.64661
▁start	-7.65733
▁take	-7.65997
▁death	-7.66212
ion	-7.66378
▁woman	-7.66772
▁wonderful	-7.6679
▁leap	-7.66886
▁away	-7.66991
▁t	-7.67245
▁full	-7.6745
emo	-7.68135
▁find	-7.68233
▁along	-7.68598
▁shining	-7.69036
".	-7.69263
mposed	-7.69341
▁hold	-7.69988
▁brother	-7.70302
▁once	-7.7107
▁Be	-7.71364
▁what	-7.71428
▁did	-7.71506
▁ornaments	-7.71667
▁forest	-7.72722
▁thought	-7.73513
▁go	-7.7364
▁Janaka	-7.73688
▁endow	-7.7369
not	-7.73896
▁came	-7.74114
ted	-7.75127
▁order	-7.75445
▁under	-7.75727
D	-7.7581
▁Tel	-7.75944
▁m	-7.75978
▁three	-7.76332
ent	-7.76435
▁Angada	-7.76712
▁seen	-7.77373
ri	-7.77543
went	-7.77564
▁burning	-7.78191
▁white	-7.78652
▁wise	-7.78794
▁weapons	-7.78969
▁set	-7.79022
cript	-7.79441
▁best	-7.79696
▁Y	-7.7983
▁chariot	-7.80022
▁ten	-7.80211
▁good	-7.80477
▁thousand	-7.80481
He	-7.8074
▁arms	-7.81416
c	-7.81539
▁own	-7.81685
▁support	-7.81906
▁being	-7.82185
Rama	-7.82617
▁Hav	-7.82931
▁surround	-7.83094
▁men	-7.8317
pic	-7.83376
▁kill	-7.83433
less	-7.83626
▁Malaya	-7.8372
▁shall	-7.83832
▁gems	-7.83971
▁resembl	-7.8401
▁crow	-7.85172
▁cloud	-7.85293
like	-7.85674
ful	-7.85713
▁happy	-7.85811
▁e	-7.85824
▁limbs	-7.86457
▁ground	-7.86557
▁brows	-7.86591
▁large	-7.86639
▁elephants	-7.88001
ld	-7.88131
▁b	-7.88222
N	-7.88266
▁Brahma	-7.88323
▁task	-7.89143
▁equal	-7.89154
▁Dev	-7.89232
▁two	-7.8924
▁C	-7.89254
▁left	-7.89291
▁Janaki	-7.89403
▁end	-7.89518
Then	-7.89825
▁tell	-7.90095
▁Roma	-7.90264
RA	-7.90511
▁world	-7.90974
ugu	-7.91356
re	-7.91373
▁only	-7.91769
mukhi	-7.91967
▁bull	-7.91971
dio	-7.92014
▁kinds	-7.92348
▁joy	-7.9249
▁thus	-7.92597
▁mansions	-7.92615
▁Ashoka	-7.92697
▁With	-7.92775
▁sounds	-7.92783
▁love	-7.92946
▁search	-7.93612
▁w	-7.93624
▁manner	-7.94237
▁destroy	-7.9466
▁audi	-7.94772
lam	-7.94799
▁excellen	-7.94882
amil	-7.95523
▁but	-7.9568
▁--	-7.95851
▁action	-7.96184
ould	-7.97691
anaga	-7.97739
▁entire	-7.97877
▁different	-7.97906
▁hundred	-7.97961
riya	-7.98009
▁thinking	-7.98747
the	-7.99173
▁account	-7.9941
▁Dadhimukha	-7.99507
in	-7.99639
▁mouth	-7.999
▁get	-8.0044
ali	-8.0049
▁round	-8.00513
ARA	-8.00634
▁head	-8.00713
▁Wh	-8.00772
▁enemy	-8.00964
▁shone	-8.00985
▁epi	-8.01262
▁father	-8.01445
▁entered	-8.0169
our	-8.01718
h	-8.02496
eyed	-8.02894
▁doubt	-8.03345
▁re	-8.03431
▁offer	-8.03689
▁Ass	-8.03781
▁queen	-8.04161
▁proper	-8.0424
▁lovely	-8.04404
▁due	-8.04576
It	-8.06332
possible	-8.06523
▁grove	-8.06614
▁chief	-8.06716
▁follow	-8.06771
▁both	-8.06944
▁might	-8.07005
▁make	-8.07133
▁so	-8.07348
▁covered	-8.0761
▁burnt	-8.07751
▁al	-8.07863
ce	-8.08558
▁ele	-8.09348
▁How	-8.09368
▁fel	-8.1006
▁divine	-8.10871
▁dreadful	-8.10911
▁yojanas	-8.10928
▁strong	-8.10966
▁before	-8.10986
▁we	-8.11001
▁horses	-8.11081
▁heart	-8.1115
▁Some	-8.11321
▁now	-8.11648
come	-8.11913
▁path	-8.12645
at	-8.13398
▁dream	-8.13482
▁mountains	-8.13761
▁dark	-8.14356
▁righteous	-8.14364
▁tears	-8.14393
▁gandharvas	-8.14458
▁us	-8.14701
▁god	-8.14761
▁self	-8.14815
▁What	-8.15198
▁de	-8.15319
▁call	-8.15929
▁sar	-8.16351
▁leader	-8.16949
▁soon	-8.17288
▁speak	-8.17331
▁sages	-8.17475
▁Aksha	-8.17556
▁bright	-8.18148
▁around	-8.18204
▁act	-8.19107
ting	-8.19154
▁destroyed	-8.19496
ve	-8.19556
▁think	-8.199
▁Indrajit	-8.20031
▁sound	-8.20198
▁himself	-8.20891
▁hands	-8.21508
▁help	-8.21582
▁night	-8.21705
l	-8.21742
▁valiant	-8.21828
▁size	-8.21896
▁found	-8.21922
▁wives	-8.22052
▁released	-8.22053
▁r	-8.22132
▁Mythili	-8.22173
▁bow	-8.22269
▁big	-8.22444
▁hit	-8.22628
▁hair	-8.22762
uch	-8.22926
On	-8.23224
▁chariots	-8.23496
▁Sar	-8.23575
▁return	-8.23633
▁done	-8.25111
▁difficult	-8.25295
▁hero	-8.25596
▁K	-8.25629
▁off	-8.25646
▁person	-8.25668
▁splendid	-8.2576
▁battle	-8.25762
▁salutations	-8.25784
▁sharp	-8.25805
▁dear	-8.25825
▁young	-8.25895
▁angry	-8.25915
▁spread	-8.2598
▁garlands	-8.26165
▁h	-8.2626
an	-8.26368
▁sent	-8.26391
of	-8.26449
▁whom	-8.26578
▁cross	-8.26944
w	-8.27024
ada	-8.27096
▁killing	-8.27171
But	-8.27204
ose	-8.28193
rious	-8.28332
Whe	-8.28559
ames	-8.2862
▁tiger	-8.28755
ards	-8.29749
▁part	-8.29753
ded	-8.29764
▁beloved	-8.29903
▁torment	-8.29923
▁right	-8.29938
▁more	-8.29959
▁mount	-8.2999
▁feet	-8.30007
▁four	-8.30164
▁moving	-8.30238
▁ris	-8.30676
▁worlds	-8.31485
▁com	-8.31505
le	-8.31553
▁mid	-8.3199
▁shore	-8.32167
▁imme	-8.32217
▁incl	-8.32258
Eve	-8.32292
▁H	-8.32389
Sita	-8.33632
▁L	-8.33836
▁blood	-8.33895
▁sweet	-8.33908
as	-8.34057
▁cruel	-8.34137
▁together	-8.34141
▁quickly	-8.34169
▁moment	-8.34188
▁else	-8.34206
▁cause	-8.3422
▁breasts	-8.34237
ity	-8.34454
▁fruits	-8.3453
▁glowing	-8.34564
ong	-8.34576
ways	-8.34643
▁command	-8.35181
▁presence	-8.35245
▁See	-8.35614
ever	-8.36458
▁move	-8.369
▁splendour	-8.37475
▁guards	-8.37691
▁assume	-8.38039
▁crossing	-8.38392
▁pleasing	-8.38469
came	-8.38527
▁Garuda	-8.38608
▁honey	-8.38608
▁remain	-8.38629
▁abode	-8.38773
▁wish	-8.38777
▁lotuses	-8.38878
▁why	-8.38895
▁jumped	-8.39104
▁live	-8.39339
▁born	-8.39352
▁f	-8.39451
▁directions	-8.39479
▁nor	-8.39576
▁As	-8.39703
▁land	-8.39841
ust	-8.399
▁enter	-8.39966
uding	-8.40296
▁black	-8.40528
▁tow	-8.41044
on	-8.41221
ontinu	-8.41388
ble	-8.41843
▁prince	-8.41912
▁accomplish	-8.42034
▁sleep	-8.4246
▁deserve	-8.42784
▁lion	-8.4322
▁protected	-8.43228
▁teeth	-8.43288
▁single	-8.43291
▁colourful	-8.43308
▁iron	-8.43313
▁fierce	-8.43452
▁since	-8.43485
▁living	-8.43503
▁nagas	-8.43528
▁Dasaratha	-8.43583
▁shedemons	-8.43584
▁fell	-8.43732
▁rest	-8.44022
▁P	-8.45015
▁ho	-8.45683
Th	-8.46172
▁rich	-8.46796
▁beauty	-8.46998
▁mansion	-8.47094
▁ma	-8.47838
▁protect	-8.48115
▁fragrance	-8.48198
▁abduct	-8.48199
▁glorious	-8.48201
▁brilliant	-8.48207
▁strongarmed	-8.48237
▁began	-8.48241
▁dropped	-8.48242
▁petals	-8.48307
▁close	-8.4831
▁fallen	-8.48371
▁accept	-8.48446
▁tall	-8.48977
▁Cha	-8.49896
▁deep	-8.51083
▁eat	-8.512
da	-8.52009
▁purpose	-8.52042
same	-8.5209
▁new	-8.5236
▁peak	-8.52943
▁touch	-8.53066
▁Vali	-8.5327
▁truth	-8.53342
▁family	-8.5337
▁capable	-8.5338
▁hope	-8.53386
▁replied	-8.534
▁clothes	-8.53419
▁thighs	-8.53466
▁heaven	-8.53482
oyal	-8.53824
▁stay	-8.53886
▁seek	-8.53912
▁sin	-8.54019
▁lo	-8.54052
▁drinking	-8.54125
▁ministers	-8.54142
B	-8.54154
▁efforts	-8.54243
fter	-8.54309
▁largeeye	-8.54523
▁peaks	-8.54523
▁accomplished	-8.54639
▁courage	-8.54931
▁known	-8.55004
▁lay	-8.55259
▁beings	-8.56016
▁demonesses	-8.56073
▁mo	-8.56372
m	-8.5664
▁advice	-8.57411
▁ascend	-8.57505
▁carry	-8.57552
▁lightning	-8.57863
Hav	-8.58136
▁bound	-8.58283
▁present	-8.58333
▁broken	-8.58799
▁happily	-8.58811
▁intoxicated	-8.58813
▁loud	-8.58815
▁silver	-8.58824
▁appearance	-8.5883
▁wicked	-8.58835
▁alone	-8.58864
▁ugly	-8.58964
▁address	-8.59013
▁human	-8.59134
▁thunderbolt	-8.59145
▁leaves	-8.59196
▁righteousness	-8.59207
▁charming	-8.5922
Wh	-8.5931
i	-8.59664
▁sm	-8.59706
▁houses	-8.60006
▁pre	-8.62755
by	-8.62806
▁moon	-8.62992
▁combat	-8.63088
▁destruction	-8.63088
▁direction	-8.63461
adorned	-8.63544
▁jewel	-8.63618
ies	-8.63694
▁fight	-8.63716
Thi	-8.6393
▁assum	-8.63947
▁sp	-8.63949
ness	-8.63954
▁how	-8.6412
▁Her	-8.64284
▁put	-8.64407
▁Surasa	-8.64555
▁prowess	-8.64556
▁welfare	-8.64556
▁suprem	-8.64557
▁sandal	-8.64561
▁cool	-8.64562
▁terrific	-8.64565
▁kingdom	-8.64568
▁enjoy	-8.6457
▁food	-8.64586
▁delightful	-8.64587
▁fixed	-8.64631
▁none	-8.64722
▁sons	-8.64746
▁indeed	-8.6481
▁Eve	-8.64897
▁lost	-8.64904
▁wait	-8.65022
▁means	-8.65044
earing	-8.65163
▁decorat	-8.6565
or	-8.65922
▁illu	-8.66204
▁parts	-8.66255
▁rule	-8.66341
ati	-8.66525
▁ca	-8.67305
▁too	-8.6778
▁faces	-8.68357
ied	-8.68626
▁drink	-8.68813
▁course	-8.69131
aged	-8.69448
▁asked	-8.69673
▁wealth	-8.70182
▁swift	-8.70417
▁harsh	-8.70663
▁people	-8.70664
▁Ikshvaku	-8.70664
▁Mandara	-8.70664
▁emaciated	-8.70665
▁residence	-8.70668
▁archway	-8.70678
ved	-8.70734
▁hand	-8.70741
▁suffering	-8.70825
▁swiftly	-8.70892
jar	-8.71012
▁bears	-8.7112
▁standing	-8.71163
▁serpents	-8.71718
▁wide	-8.71769
ok	-8.71782
▁mission	-8.71884
▁sh	-8.72094
▁let	-8.72165
ave	-8.72741
cious	-8.72755
▁forth	-8.72909
▁bee	-8.73034
Ravana	-8.73063
▁mother	-8.7316
▁lap	-8.73175
▁Madhuvanam	-8.74066
She	-8.74088
laid	-8.74214
▁messenger	-8.74377
ility	-8.74405
▁hear	-8.74461
▁Jambavan	-8.74463
head	-8.74626
eared	-8.74983
.)	-8.75104
▁sever	-8.75456
▁All	-8.75781
▁effort	-8.76055
▁serpent	-8.76056
▁where	-8.7606
▁resemble	-8.76753
armed	-8.76798
▁turn	-8.76871
▁slept	-8.77168
▁blazing	-8.7717
▁fullmoon	-8.77173
▁say	-8.77207
▁rays	-8.77238
▁grass	-8.77238
▁yakshas	-8.77317
▁use	-8.77339
▁true	-8.77346
▁p	-8.77433
▁because	-8.77454
▁creepers	-8.7747
▁fame	-8.77473
▁flying	-8.77571
▁roared	-8.7763
▁stars	-8.78211
▁orders	-8.78313
given	-8.78684
T	-8.78859
nt	-8.78925
▁tigers	-8.78966
▁rain	-8.78997
ought	-8.79363
▁warrior	-8.7961
▁match	-8.79738
▁suc	-8.79827
▁In	-8.79847
▁going	-8.79912
rial	-8.80132
fully	-8.80161
▁placed	-8.80387
▁glory	-8.80585
▁Pushpaka	-8.80588
▁ogress	-8.80832
How	-8.80947
▁commit	-8.81325
▁approach	-8.81452
▁warriors	-8.8159
▁delight	-8.81779
▁G	-8.82299
▁kinkaras	-8.82342
▁g	-8.82463
▁ears	-8.82925
▁weapon	-8.82991
▁house	-8.83035
upa	-8.83288
▁draw	-8.84012
-	-8.84024
▁honour	-8.84126
▁master	-8.84139
▁branches	-8.84169
▁asleep	-8.84179
extraordinary	-8.84179
▁five	-8.84192
▁season	-8.84217
▁pieces	-8.84282
ily	-8.84285
▁deeds	-8.84296
▁worthy	-8.84338
▁eager	-8.84341
▁Kubera	-8.84344
▁complexion	-8.8435
▁heroes	-8.84352
▁send	-8.84371
▁observ	-8.84463
▁lions	-8.84531
▁blossoms	-8.84607
▁talk	-8.84698
▁name	-8.84756
▁sight	-8.84881
▁Therefore	-8.85039
▁delighted	-8.85306
lying	-8.85439
Oh	-8.85773
▁Indeed	-8.85902
et	-8.86076
▁devot	-8.86158
▁E	-8.86232
▁top	-8.86423
▁feel	-8.86957
▁music	-8.87088
struck	-8.87233
▁free	-8.87324
▁dis	-8.88048
rose	-8.88285
ile	-8.8836
red	-8.88501
▁minister	-8.88568
ana	-8.88652
▁du	-8.88692
My	-8.88735
arati	-8.89992
▁ne	-8.90156
▁air	-8.90177
▁Hear	-8.90426
▁accompan	-8.90448
▁ornament	-8.90483
▁pleasure	-8.90503
pped	-8.9097
▁past	-8.91206
▁virtu	-8.91502
▁female	-8.91604
▁animals	-8.91605
▁Raghava	-8.91605
▁frightening	-8.91607
▁determin	-8.91608
▁arrived	-8.9161
▁friendship	-8.91613
▁proud	-8.91613
▁still	-8.91622
▁chest	-8.91636
▁near	-8.91643
▁relatives	-8.91692
▁generals	-8.91694
▁sake	-8.91711
▁separated	-8.91739
▁voice	-8.918
▁race	-8.91813
▁conquer	-8.91831
▁deer	-8.91951
mall	-8.91965
▁terribl	-8.91967
▁decorate	-8.9201
▁senses	-8.92164
▁creatures	-8.92211
▁flames	-8.92305
ate	-8.92364
urely	-8.92405
▁shed	-8.92516
faced	-8.92666
▁saying	-8.92715
▁ways	-8.92716
ops	-8.92981
ook	-8.92999
j	-8.93828
ring	-8.93854
ord	-8.93976
▁force	-8.9432
▁collect	-8.94589
To	-8.94686
▁eng	-8.9474
Or	-8.94997
▁further	-8.95566
▁harem	-8.95576
▁flow	-8.9571
guarded	-8.9573
▁dead	-8.95964
▁Whe	-8.96035
▁grow	-8.96139
▁appear	-8.96173
ated	-8.9641
▁grace	-8.96571
There	-8.96801
▁slay	-8.97285
▁state	-8.97599
▁Jambumali	-8.97607
▁compo	-8.97858
In	-8.9789
▁wear	-8.98047
▁Vibhishana	-8.98113
▁desire	-8.98262
▁ones	-8.98562
▁river	-8.98593
▁kind	-8.98744
▁flower	-8.98747
▁threaten	-8.98997
▁neck	-8.9904
na	-8.99196
▁day	-8.99213
twe	-8.99221
▁sad	-8.9941
rsed	-8.99449
▁kept	-8.99686
▁little	-8.99688
▁pillar	-8.9969
▁earrings	-8.9969
▁worship	-8.9969
▁prosperous	-8.99692
▁consort	-8.99694
▁evilminded	-8.99695
▁bloom	-8.997
▁brought	-8.99702
▁hanging	-8.99725
▁enraged	-8.9973
▁scattered	-8.99777
▁defeat	-8.99794
▁scorcher	-8.99807
▁pure	-8.99816
▁rolling	-8.9983
▁lips	-8.9987
▁princes	-8.99974
▁thundering	-8.99991
▁clear	-9.00032
▁keep	-9.00114
▁boon	-9.00151
▁wings	-9.00187
▁pearls	-9.00246
▁drawn	-9.00336
▁palms	-9.00586
▁whole	-9.00664
▁bring	-9.00806
▁perform	-9.01235
some	-9.01473
ither	-9.01603
▁Sa	-9.01685
Ju	-9.01718
▁save	-9.01745
▁foot	-9.01891
▁returned	-9.02142
▁show	-9.02165
Surely	-9.02426
▁experience	-9.02542
sed	-9.03408
ched	-9.03463
▁wine	-9.0353
▁Sim	-9.03708
▁F	-9.03729
led	-9.03986
ation	-9.03996
▁signs	-9.04203
ward	-9.04723
▁se	-9.0494
▁entrance	-9.05072
built	-9.05328
▁gardens	-9.05577
▁win	-9.05641
▁ye	-9.05795
▁meet	-9.05877
▁praise	-9.06116
▁fill	-9.06422
ding	-9.06597
▁hall	-9.06666
▁At	-9.06671
▁narrate	-9.06732
▁every	-9.06889
p	-9.0702
▁pro	-9.07167
▁compar	-9.07273
▁merit	-9.07384
▁elder	-9.07533
▁glow	-9.07625
▁colour	-9.08114
▁agony	-9.08482
▁poison	-9.08482
▁exhibit	-9.08483
▁cluster	-9.08483
▁exquisite	-9.08484
▁separation	-9.08485
▁radiance	-9.08486
▁survive	-9.0849
▁garment	-9.08491
▁chastity	-9.08493
▁distance	-9.08496
▁carefully	-9.08522
▁noise	-9.08546
▁slain	-9.08546
▁glad	-9.08553
▁myself	-9.08589
▁attack	-9.08627
▁seized	-9.08637
▁worn	-9.08678
▁story	-9.08679
▁reduced	-9.08732
▁waist	-9.08762
▁Mainaka	-9.08763
▁Mahendra	-9.08763
fty	-9.08778
▁dharma	-9.08799
▁st	-9.08803
▁noticed	-9.08812
▁loudly	-9.08839
▁march	-9.08851
▁work	-9.08968
▁wall	-9.08985
▁pleased	-9.09039
▁compassion	-9.09248
▁render	-9.09251
▁shower	-9.09328
▁light	-9.09383
it	-9.09589
▁open	-9.09591
u	-9.09758
▁eight	-9.09878
▁fall	-9.09892
ter	-9.09924
▁arm	-9.1035
▁awa	-9.10406
ious	-9.10833
▁princess	-9.10869
▁My	-9.12271
▁R	-9.12559
▁No	-9.12763
▁J	-9.12797
▁An	-9.13214
▁tro	-9.13421
king	-9.13535
posed	-9.13937
uld	-9.14617
city	-9.14723
ad	-9.15096
▁control	-9.15573
and	-9.15745
▁token	-9.15805
▁Brahmastra	-9.15891
me	-9.15899
cond	-9.16002
▁Vi	-9.16062
▁Who	-9.16127
▁Le	-9.16272
▁po	-9.1643
ally	-9.16607
ving	-9.16659
▁care	-9.16672
▁cow	-9.16896
▁reason	-9.16912
▁burn	-9.16941
ough	-9.1698
▁arrow	-9.17005
▁eye	-9.17102
▁serv	-9.17199
▁then	-9.17347
ned	-9.17751
▁die	-9.17945
▁resol	-9.17978
▁passion	-9.18109
▁types	-9.18124
▁Varuna	-9.18125
▁autumn	-9.18125
▁journey	-9.18126
▁glitter	-9.18126
▁goddess	-9.18126
▁penance	-9.18127
▁renowned	-9.18127
▁distorted	-9.18128
▁favour	-9.18128
▁everywhere	-9.18129
▁message	-9.1813
▁Yama	-9.18131
▁Vanara	-9.18132
▁listen	-9.18132
▁vidyadharas	-9.18134
▁themselves	-9.18135
▁hips	-9.18143
▁prevent	-9.18145
▁dragg	-9.18154
▁forehead	-9.18155
▁front	-9.18157
▁distinguish	-9.18167
▁breath	-9.18176
▁capa	-9.18183
▁alive	-9.18218
▁siddhas	-9.18232
▁shaken	-9.18246
▁short	-9.18272
▁asuras	-9.18273
▁stretch	-9.18299
▁drop	-9.18319
▁blameless	-9.18362
▁relieve	-9.18363
▁happiness	-9.18419
▁possess	-9.1844
▁sporting	-9.1847
▁flock	-9.18563
▁loving	-9.18584
▁leaders	-9.18619
▁spring	-9.18739
▁wielder	-9.18773
▁snakes	-9.18799
▁streams	-9.18802
▁cut	-9.19502
▁boundar	-9.1954
upon	-9.19845
▁May	-9.19923
▁distress	-9.20229
▁sleeping	-9.20305
rows	-9.20395
ja	-9.20496
▁Thereafter	-9.20705
▁attend	-9.2089
▁mak	-9.20987
▁ga	-9.21323
▁variet	-9.21426
▁Co	-9.21516
▁comes	-9.21889
▁finding	-9.21941
▁fe	-9.22836
▁creat	-9.22936
▁brothers	-9.23014
▁mass	-9.23196
▁sacrifici	-9.23266
for	-9.23439
hose	-9.23573
oked	-9.23574
pa	-9.23707
splend	-9.23751
▁used	-9.23961
▁seat	-9.24236
imsu	-9.24337
ka	-9.24558
▁bo	-9.24675
▁unite	-9.24812
▁depart	-9.24874
▁Sri	-9.24925
Sugriva	-9.25131
Who	-9.25943
▁Prahasta	-9.26023
▁emissary	-9.26069
shot	-9.26118
▁thirty	-9.26137
▁mus	-9.26238
▁D	-9.26346
▁tender	-9.26363
hus	-9.26475
▁jump	-9.26603
▁skill	-9.26606
tion	-9.26653
mo	-9.26777
▁d	-9.26821
▁capture	-9.26888
ten	-9.26953
▁el	-9.26962
oth	-9.26985
▁mark	-9.27128
▁carri	-9.2718
▁month	-9.27757
ning	-9.27981
▁garland	-9.28003
See	-9.28028
▁seven	-9.28114
▁rid	-9.28143
▁soul	-9.28175
--------------	-9.28318
▁flesh	-9.28325
▁virtue	-9.28441
▁carrie	-9.28499
▁please	-9.28514
▁ready	-9.28679
▁Meru	-9.28797
▁Visnu	-9.28798
▁enlarg	-9.28799
▁yellow	-9.288
▁vaidurya	-9.28801
▁victorious	-9.28802
▁appropriate	-9.28802
▁flew	-9.28803
▁fragrant	-9.28805
▁shattered	-9.28814
▁frightened	-9.28815
▁timid	-9.28818
▁satisfied	-9.28819
▁consider	-9.28821
▁enough	-9.28826
▁waves	-9.28835
▁proceed	-9.28836
▁certain	-9.28842
▁Sungod	-9.28851
▁trembling	-9.2887
▁inhabit	-9.28889
▁ordinary	-9.2889
▁itself	-9.28893
▁energy	-9.28898
▁prais	-9.28918
nother	-9.2902
▁movement	-9.29027
▁tridents	-9.29044
▁gone	-9.29069
heavy	-9.29071
▁lustre	-9.29085
▁fine	-9.29105
▁pale	-9.2912
▁everything	-9.29151
▁soiled	-9.29157
▁dust	-9.29178
▁rocks	-9.29201
▁confiden	-9.29208
▁protector	-9.29213
▁across	-9.29218
▁shoulders	-9.29225
▁nails	-9.2925
▁friends	-9.29419
een	-9.29457
▁reported	-9.2947
ance	-9.2949
▁alas	-9.29495
▁fasting	-9.2951
---------------	-9.29516
▁swans	-9.29531
ideous	-9.29698
g	-9.29934
▁caus	-9.29972
▁virtues	-9.30036
▁nose	-9.30128
▁feeling	-9.30184
▁lover	-9.3031
with	-9.30386
▁pleasures	-9.30436
▁charm	-9.30648
ety	-9.31019
nad	-9.31354
ling	-9.31389
▁fold	-9.31467
▁Do	-9.31521
▁Look	-9.31597
▁offering	-9.31599
▁appeal	-9.31831
▁don	-9.319
▁behe	-9.3196
▁ki	-9.32525
▁So	-9.32906
▁Whi	-9.32918
▁experienc	-9.33583
(	-9.33908
▁dep	-9.33986
▁sim	-9.3437
ic	-9.34376
ual	-9.34589
Chudamani	-9.34662
▁norther	-9.34815
nce	-9.34919
▁perish	-9.34976
▁ever	-9.35025
aught	-9.3603
▁ab	-9.36271
each	-9.36829
id	-9.36978
ers	-9.37099
▁k	-9.37175
-------------	-9.37184
Indeed	-9.37626
▁identification	-9.3763
▁Kishkinda	-9.37653
pleasant	-9.37654
▁places	-9.37723
▁chance	-9.37749
ready	-9.37816
▁ba	-9.38009
▁laugh	-9.38071
▁ear	-9.38113
▁kings	-9.3816
▁W	-9.38864
ala	-9.38983
ther	-9.39004
▁gre	-9.39084
ame	-9.39129
am	-9.39183
mission	-9.39334
▁cla	-9.39378
ne	-9.39492
▁respect	-9.39517
▁tongue	-9.39615
▁fruit	-9.3963
▁fail	-9.39748
he	-9.3999
▁flame	-9.40129
▁midd	-9.4013
▁success	-9.40338
▁con	-9.4042
▁mov	-9.40713
▁hel	-9.40724
▁Sachi	-9.40749
▁broad	-9.40749
▁nectar	-9.4075
▁choice	-9.4075
▁anklets	-9.40751
▁chamber	-9.40751
▁Durdhara	-9.40751
▁forcibly	-9.40751
▁jingling	-9.40751
▁pierc	-9.40752
▁exhausted	-9.40752
▁intoxication	-9.40753
▁Firegod	-9.40753
▁braid	-9.40754
▁dissolution	-9.40754
▁universe	-9.40756
▁unassailable	-9.40757
▁radiant	-9.40758
Mighty	-9.40764
▁dejected	-9.40772
▁curved	-9.40775
▁expert	-9.40779
▁receive	-9.4078
▁beasts	-9.40785
▁produc	-9.40803
▁blue	-9.40808
▁quest	-9.40826
▁floor	-9.40832
▁Over	-9.40851
rong	-9.40853
▁stud	-9.40875
▁gentle	-9.40878
▁armlets	-9.40882
▁afflicted	-9.40882
▁minerals	-9.40883
▁instruments	-9.40884
▁contracted	-9.40885
▁corals	-9.40888
▁succeed	-9.40898
▁rejoiced	-9.40902
▁souther	-9.40914
▁intelligent	-9.40932
▁robes	-9.40949
▁suras	-9.40972
▁meaningful	-9.40989
▁smoke	-9.41009
▁ashes	-9.41059
▁today	-9.41062
▁singing	-9.41101
▁disappear	-9.41104
▁per	-9.41105
▁missiles	-9.41135
▁risen	-9.41165
▁intense	-9.41178
▁Know	-9.41207
▁decided	-9.41272
▁roots	-9.41296
minded	-9.41313
▁limit	-9.41318
▁pain	-9.41321
▁anxious	-9.41347
▁subdue	-9.41382
▁uprooted	-9.41476
▁shadow	-9.41505
▁luck	-9.41553
----------------	-9.41644
▁aside	-9.41646
▁fast	-9.41713
▁sighing	-9.41876
ike	-9.41876
▁months	-9.41964
▁want	-9.41967
▁omen	-9.42223
▁fighting	-9.42631
▁bar	-9.42695
▁paste	-9.42812
▁va	-9.43242
▁decide	-9.43443
▁lead	-9.43532
Bo	-9.43581
de	-9.43705
▁speaking	-9.43739
decked	-9.43978
ped	-9.44011
ained	-9.4411
▁bows	-9.44207
searching	-9.4427
▁Or	-9.44304
nd	-9.44634
▁wasted	-9.4544
ping	-9.45486
▁di	-9.45592
▁mad	-9.4571
tic	-9.45758
▁real	-9.45918
wn	-9.46045
▁devo	-9.46109
▁Ha	-9.46383
▁comfort	-9.46384
▁rush	-9.4706
taking	-9.4713
turned	-9.47147
▁n	-9.47336
dorned	-9.48582
ank	-9.49382
▁reache	-9.50534
▁fam	-9.50726
▁condition	-9.50758
though	-9.50914
▁dr	-9.51061
▁Trijata	-9.51189
▁spirit	-9.51199
What	-9.51254
Thereafter	-9.51332
med	-9.51598
ty	-9.52016
rust	-9.52236
umb	-9.52364
lled	-9.52394
▁gaz	-9.52439
inner	-9.52659
▁forms	-9.53058
▁countenance	-9.53172
▁servant	-9.53173
▁creature	-9.5321
▁trunk	-9.53212
▁palm	-9.5324
tting	-9.53252
per	-9.53362
▁l	-9.535
▁ex	-9.53873
ma	-9.54203
▁branch	-9.54242
▁astra	-9.54294
▁adopt	-9.5431
▁Rahu	-9.54311
▁tower	-9.54313
▁knees	-9.54323
▁afraid	-9.54326
▁Simhika	-9.54326
▁Rohini	-9.54327
▁arrival	-9.54327
▁unguents	-9.54327
▁perplexed	-9.54328
▁abundan	-9.54328
▁bodies	-9.54328
▁invincible	-9.54328
▁austerities	-9.54328
▁speech	-9.54329
▁slowly	-9.54329
▁intelligence	-9.5433
▁victory	-9.5433
▁region	-9.54333
▁encircl	-9.54333
▁extreme	-9.54333
▁duty	-9.54338
▁conceal	-9.54339
▁highsouled	-9.54341
▁sacred	-9.54351
▁handsome	-9.54385
▁firmly	-9.54386
▁suddenly	-9.5439
▁darkness	-9.54392
▁giant	-9.54392
▁slipp	-9.54408
▁behold	-9.54411
▁boat	-9.5443
▁longarmed	-9.54452
▁lamps	-9.54458
▁according	-9.54461
▁much	-9.54479
▁upward	-9.54531
knowledge	-9.54555
▁belly	-9.54611
▁foes	-9.54653
▁space	-9.54666
▁ruined	-9.54671
▁till	-9.54694
▁fac	-9.54698
▁freely	-9.54754
▁forward	-9.54758
▁Sampati	-9.54765
▁Go	-9.54776
▁special	-9.54836
▁within	-9.54856
▁cloth	-9.549
▁spears	-9.5492
▁covering	-9.54921
▁fit	-9.54973
▁ponds	-9.54979
▁salt	-9.55012
▁bear	-9.55042
▁lack	-9.55096
▁seats	-9.55121
▁case	-9.55123
▁crystals	-9.55134
▁direct	-9.55175
▁mud	-9.55194
▁side	-9.55282
avati	-9.55308
▁soft	-9.55382
▁bind	-9.55391
▁roaring	-9.55548
▁marks	-9.55604
▁fore	-9.55797
▁pull	-9.55803
any	-9.55826
▁embrac	-9.55888
Hence	-9.55903
▁pitiabl	-9.5591
ged	-9.55926
▁difficulty	-9.5603
▁sense	-9.56132
▁colours	-9.56179
▁performed	-9.56238
▁waters	-9.56302
------------	-9.56593
▁faithful	-9.56613
▁Con	-9.56663
▁Now	-9.56679
ities	-9.56812
▁glance	-9.56853
▁flash	-9.56894
age	-9.57086
▁Alas	-9.57092
ked	-9.57193
▁climb	-9.57766
▁pleasant	-9.5802
▁harm	-9.58073
▁shout	-9.58089
▁fo	-9.58245
▁im	-9.58986
ntinu	-9.59575
ince	-9.60048
joy	-9.60314
▁count	-9.60618
ut	-9.60888
ocks	-9.60945
▁sure	-9.60954
▁laid	-9.61004
▁mean	-9.61068
pt	-9.61075
▁forests	-9.61242
▁rescue	-9.61455
▁attempt	-9.61862
svakar	-9.61953
▁far	-9.62413
inlaw	-9.62772
his	-9.63488
whe	-9.63778
erous	-9.63913
men	-9.64248
cked	-9.64431
ha	-9.64493
▁num	-9.64604
▁leave	-9.65081
▁En	-9.65112
that	-9.65216
den	-9.65253
▁drive	-9.65337
We	-9.65476
god	-9.66058
oke	-9.661
▁regard	-9.66403
ar	-9.66439
inking	-9.66518
▁utter	-9.66778
asur	-9.66849
ay	-9.66907
Alas	-9.66967
▁Give	-9.67278
▁exa	-9.67705
▁enc	-9.67788
stand	-9.67853
For	-9.67883
All	-9.67977
▁roar	-9.68066
ive	-9.68073
▁plac	-9.68149
emin	-9.68392
▁slaye	-9.68416
▁kin	-9.68432
ext	-9.6844
▁fifty	-9.68481
▁unf	-9.68504
ge	-9.68611
▁fulfil	-9.68624
▁row	-9.68672
▁wonder	-9.68683
▁twenty	-9.68839
▁desir	-9.68876
▁join	-9.68892
▁punishment	-9.689
▁blossom	-9.68902
▁pearl	-9.68905
▁snake	-9.68905
▁figure	-9.68911
▁horse	-9.6894
▁stream	-9.68987
▁bed	-9.69284
▁blow	-9.69323
▁fist	-9.69336
▁ascetic	-9.69393
▁swan	-9.69554
▁anxi	-9.69616
rived	-9.69655
▁embellish	-9.70026
▁Bharata	-9.70026
▁Janasthana	-9.70026
▁Sumitra	-9.70026
▁envoy	-9.70026
▁foolish	-9.70026
▁platforms	-9.70026
▁venerable	-9.70026
▁execut	-9.70026
▁frequent	-9.70026
▁secret	-9.70026
▁future	-9.70026
▁lilies	-9.70027
▁refuge	-9.70027
▁staff	-9.70027
▁eyelashes	-9.70027
▁lattice	-9.70027
▁Maruti	-9.70028
▁location	-9.70028
▁streets	-9.70028
▁twang	-9.70029
▁bondage	-9.70029
▁stationed	-9.70032
▁demoness	-9.70033
▁interest	-9.70034
▁pathetic	-9.70035
▁scratch	-9.70035
▁descend	-9.70039
▁whirl	-9.70039
▁hurled	-9.70041
▁forbid	-9.70042
▁bark	-9.70042
▁Siva	-9.70043
▁earlier	-9.70046
▁situation	-9.70049
▁impossible	-9.70049
▁surviving	-9.70049
▁convey	-9.7005
▁steadfast	-9.70056
▁hammers	-9.70057
▁depressed	-9.70061
▁attention	-9.70062
▁otherwise	-9.70076
▁calm	-9.70086
▁coppery	-9.70097
▁futile	-9.70098
▁acquire	-9.70101
▁quar	-9.70123
▁truthful	-9.70125
▁firegod	-9.70137
▁violently	-9.70139
ry	-9.70139
▁abduction	-9.70144
▁protection	-9.70153
▁dancing	-9.70157
Great	-9.70159
▁gather	-9.70159
owerful	-9.70172
▁sinner	-9.70198
▁consoled	-9.70204
▁centr	-9.70232
▁observe	-9.70236
▁dwelling	-9.70251
Valiant	-9.70356
▁clan	-9.70373
▁diamonds	-9.70394
▁Vedas	-9.70414
▁oil	-9.70415
▁learn	-9.70417
view	-9.7042
presiding	-9.70433
▁blessed	-9.70452
soldiers	-9.70458
▁strike	-9.70474
▁position	-9.70492
▁nothing	-9.70541
▁establish	-9.70545
▁happened	-9.70551
▁charanas	-9.70552
▁behind	-9.70553
▁Behold	-9.70561
▁realis	-9.7058
▁threatening	-9.7059
▁half	-9.70593
▁caves	-9.70611
▁fortune	-9.70612
▁crusher	-9.70662
▁fair	-9.70676
▁picture	-9.70758
▁flags	-9.7077
▁planets	-9.70781
▁obstruct	-9.70788
▁pair	-9.70836
▁dry	-9.70903
▁extend	-9.70929
▁gate	-9.70936
▁trust	-9.7095
▁buildings	-9.70977
▁blowing	-9.7099
▁sl	-9.71029
▁Kakutstha	-9.71085
▁helpless	-9.71232
▁passionate	-9.71233
vast	-9.7127
▁astras	-9.71384
stricken	-9.71516
rs	-9.71702
▁lit	-9.71775
▁fly	-9.71813
ial	-9.71817
ixed	-9.71892
ows	-9.7194
▁super	-9.7196
ship	-9.72124
▁magn	-9.72203
▁bare	-9.72309
▁rivers	-9.72311
act	-9.72323
▁stor	-9.72369
got	-9.72378
▁desires	-9.72406
▁vari	-9.72591
▁pass	-9.72605
bserv	-9.7265
stood	-9.72674
▁ill	-9.72718
▁elders	-9.72792
ught	-9.7302
▁dress	-9.73021
shaped	-9.73149
ters	-9.73347
▁fa	-9.7378
▁touched	-9.73782
▁rais	-9.73797
▁Hi	-9.73805
C	-9.73962
▁wo	-9.74056
▁meat	-9.74155
ch	-9.74496
▁King	-9.74622
▁law	-9.74663
▁chast	-9.74727
▁We	-9.74776
la	-9.74776
E	-9.74899
▁sat	-9.75151
▁host	-9.75277
aka	-9.75749
ur	-9.75944
ssed	-9.75992
▁heads	-9.76004
▁allow	-9.76026
▁en	-9.76142
▁wild	-9.76173
▁tone	-9.76257
▁ban	-9.76429
one	-9.76462
▁br	-9.76531
▁Shake	-9.76635
▁escape	-9.77167
▁Not	-9.77264
▁dar	-9.77285
my	-9.7743
▁lif	-9.77457
ement	-9.77467
hood	-9.77555
um	-9.77557
▁To	-9.77604
▁heav	-9.77739
Ha	-9.77891
om	-9.78132
itting	-9.78351
som	-9.7836
inless	-9.78418
▁ro	-9.78873
▁Mandodari	-9.7892
▁reveal	-9.78962
Not	-9.78993
hissing	-9.79376
sup	-9.79385
▁delu	-9.79708
▁chas	-9.79763
▁bla	-9.79899
▁o	-9.80139
used	-9.80155
rati	-9.80157
roop	-9.80826
company	-9.80934
▁indulg	-9.8097
ioned	-9.81208
aring	-9.81283
▁bees	-9.81878
eeing	-9.82061
▁hi	-9.8216
▁car	-9.82399
▁report	-9.8254
▁worry	-9.82796
▁ver	-9.83072
appearing	-9.83102
script	-9.83121
uck	-9.83172
▁thro	-9.83372
▁conduct	-9.83681
Le	-9.83745
▁measure	-9.83749
ot	-9.84161
▁incident	-9.84276
va	-9.84496
AN	-9.8459
ries	-9.8504
▁repl	-9.8515
water	-9.8518
▁miser	-9.85213
With	-9.85367
▁code	-9.85369
▁faith	-9.8554
ite	-9.85832
looking	-9.85909
▁herd	-9.85982
▁Ka	-9.86001
eated	-9.86073
▁spare	-9.8628
▁hung	-9.86602
▁cours	-9.86677
▁stre	-9.87141
Be	-9.87153
▁destroye	-9.87347
how	-9.8739
▁heat	-9.87437
rom	-9.8744
▁raise	-9.87478
▁uproot	-9.87534
▁crystal	-9.87554
▁friend	-9.87557
▁tip	-9.87575
▁shedemon	-9.87586
▁stone	-9.87658
▁formi	-9.8777
▁bird	-9.87795
▁wield	-9.87873
▁building	-9.87917
mar	-9.88001
ant	-9.88057
▁reduce	-9.88132
▁word	-9.88176
▁ring	-9.88358
▁cons	-9.88436
▁yoke	-9.8845
▁sixty	-9.88473
-----------	-9.88577
▁esteem	-9.88681
▁Praghasa	-9.88681
▁Saumitri	-9.88681
▁Videha	-9.88681
▁dazzl	-9.88681
▁efficient	-9.88681
▁fatigue	-9.88681
▁identity	-9.88681
▁meditating	-9.88681
▁vessels	-9.88681
▁Trikuta	-9.88681
▁clutche	-9.88681
▁increase	-9.88681
▁spoilt	-9.88681
▁asceticism	-9.88682
▁prosperity	-9.88682
▁Vindhya	-9.88682
▁crowbar	-9.88682
▁peacocks	-9.88682
▁reddish	-9.88682
▁brilliance	-9.88683
▁language	-9.88683
▁enchanting	-9.88683
▁delicate	-9.88683
▁blazed	-9.88684
▁obtain	-9.88684
▁excessive	-9.88684
▁beds	-9.88685
▁Creator	-9.88685
▁pillow	-9.88686
▁sastras	-9.88687
▁eyebrows	-9.88687
▁yield	-9.88687
▁despondent	-9.88689
▁remember	-9.88689
▁ignoble	-9.88689
▁summit	-9.88689
▁underworld	-9.88694
▁child	-9.88694
▁recall	-9.88695
▁charioteer	-9.88695
▁affection	-9.88696
▁wonderstruck	-9.88697
▁natural	-9.88709
▁smile	-9.88711
▁wellbeing	-9.88713
▁punish	-9.88716
▁Wind	-9.88718
▁choked	-9.88722
▁repeatedly	-9.88723
▁torture	-9.88742
▁detail	-9.88743
▁Raghu	-9.88752
▁similar	-9.88757
▁couch	-9.8877
▁raincloud	-9.88772
▁inflam	-9.88789
perhaps	-9.88796
▁adornment	-9.88804
▁pious	-9.88812
▁respectable	-9.8883
▁survey	-9.88843
▁streak	-9.88844
▁speedily	-9.8885
▁design	-9.88866
▁loyal	-9.88867
▁becom	-9.88876
▁steps	-9.88887
▁crores	-9.88889
▁awakened	-9.88894
▁smashed	-9.88903
▁attain	-9.88919
▁absorbed	-9.88922
▁revered	-9.88931
▁intention	-9.88949
▁wandering	-9.88955
▁understand	-9.89005
▁i	-9.89035
▁wounded	-9.89052
▁wishes	-9.89054
▁provided	-9.89067
▁ran	-9.89075
▁grand	-9.89085
▁donkeys	-9.89121
▁crocodiles	-9.89126
▁scared	-9.89155
▁discharged	-9.89234
▁crying	-9.89256
▁mine	-9.89267
▁ropes	-9.89311
▁equi	-9.89318
▁devour	-9.89399
▁trem	-9.89437
▁Nand	-9.89442
▁strings	-9.89568
pital	-9.89576
▁drums	-9.89579
▁sway	-9.89602
▁reflected	-9.89628
▁walk	-9.89634
▁worrying	-9.89634
▁thinks	-9.89674
▁mental	-9.89711
▁safe	-9.89758
▁hurt	-9.89775
eroic	-9.89806
▁stones	-9.89829
▁tips	-9.89843
▁bl	-9.89893
▁rage	-9.89941
▁majestic	-9.89958
▁Thi	-9.90067
▁banks	-9.90203
ything	-9.90247
▁pained	-9.90259
▁growing	-9.90309
tinu	-9.90407
▁sides	-9.90442
▁advanc	-9.90697
▁won	-9.90716
▁spr	-9.90731
k	-9.90802
▁reasons	-9.91001
inal	-9.9102
▁dare	-9.91217
▁reflect	-9.91247
▁mar	-9.91261
▁emerg	-9.91409
▁ruler	-9.91467
▁waited	-9.91503
ence	-9.91641
▁disc	-9.91695
▁forces	-9.91871
velo	-9.91958
▁stand	-9.92021
▁occu	-9.92209
Yet	-9.92244
ions	-9.92248
▁run	-9.92338
▁For	-9.92378
▁ahead	-9.92436
neck	-9.92488
DA	-9.92498
▁drinks	-9.92508
vile	-9.92534
▁star	-9.92799
▁push	-9.92975
▁cast	-9.93128
▁tops	-9.93281
▁stopp	-9.93529
▁heap	-9.93537
lted	-9.93581
urround	-9.93778
▁crush	-9.94203
ortunate	-9.94346
▁looks	-9.94533
▁follows	-9.94543
first	-9.94726
ugh	-9.94806
rang	-9.9528
▁cl	-9.95373
▁intend	-9.95401
▁varie	-9.9576
▁mouths	-9.95948
rown	-9.96296
▁comp	-9.9641
▁cr	-9.96527
▁fish	-9.96848
ressed	-9.97056
▁imm	-9.97076
ons	-9.97339
▁seem	-9.97445
ened	-9.97453
▁prov	-9.97758
que	-9.98396
▁elde	-9.98436
▁wood	-9.98444
▁thoughts	-9.98493
▁hide	-9.98914
ecked	-9.99487
▁Un	-9.99527
▁sorrows	-9.99885
▁salut	-9.99978
▁wails	-10.0001
▁ch	-10.0032
em	-10.0039
nished	-10.0054
ure	-10.0117
▁vig	-10.0119
alliance	-10.0121
▁imp	-10.0144
truck	-10.015
▁north	-10.0159
▁old	-10.0183
▁fl	-10.0208
side	-10.0245
ump	-10.0257
▁sto	-10.0266
▁y	-10.0273
ared	-10.0312
awn	-10.0314
▁su	-10.0346
▁pond	-10.035
ific	-10.0362
▁Re	-10.0384
ical	-10.0405
rew	-10.0442
ack	-10.0448
peak	-10.0459
▁whos	-10.0473
ushed	-10.0482
hi	-10.0491
▁recognise	-10.0495
▁times	-10.0515
▁despondency	-10.0538
▁plight	-10.0541
▁piteously	-10.0555
ts	-10.0566
pressed	-10.0568
▁describe	-10.0571
▁change	-10.0575
▁begin	-10.0581
▁sub	-10.0595
tial	-10.0597
▁visit	-10.0611
▁thorough	-10.0617
▁thing	-10.0639
▁sport	-10.0652
▁Ch	-10.0682
which	-10.0682
now	-10.0702
ocean	-10.0719
Indra	-10.076
▁sho	-10.0774
Whi	-10.078
▁beg	-10.0784
▁Where	-10.079
self	-10.0813
▁plan	-10.0825
ru	-10.0826
Some	-10.0835
Aksha	-10.0838
Therefore	-10.0842
body	-10.0844
May	-10.0852
▁flo	-10.0855
▁doe	-10.0859
lm	-10.0876
lose	-10.0885
ound	-10.0889
▁shape	-10.0897
ior	-10.0913
▁enquire	-10.093
night	-10.0941
tra	-10.0954
▁thunder	-10.0962
▁cover	-10.0981
main	-10.1035
▁subdu	-10.1036
ccept	-10.1037
▁ogre	-10.1046
▁nightranger	-10.1046
▁structure	-10.1046
▁number	-10.1047
▁mistake	-10.105
▁Maruta	-10.1051
▁planet	-10.1053
▁flag	-10.1054
▁drum	-10.1054
▁vow	-10.1056
▁spear	-10.1061
▁root	-10.1065
▁doom	-10.1068
rained	-10.1069
F	-10.1082
▁spot	-10.11
▁angr	-10.1114
▁tri	-10.1116
▁release	-10.1119
▁south	-10.114
▁load	-10.1144
weari	-10.1148
▁smok	-10.115
▁bank	-10.1159
▁situat	-10.116
asty	-10.1162
▁Kausalya	-10.1163
▁agitated	-10.1163
▁apparent	-10.1163
▁breeze	-10.1163
▁carpet	-10.1163
▁character	-10.1163
▁corners	-10.1163
▁declared	-10.1163
▁discipline	-10.1163
▁immediately	-10.1163
▁ivory	-10.1163
▁opportun	-10.1163
▁singlehanded	-10.1163
▁sovereignty	-10.1163
▁suicide	-10.1163
▁vultures	-10.1163
▁circumambulat	-10.1163
▁galleries	-10.1163
▁twilight	-10.1163
▁dynasty	-10.1163
▁proposal	-10.1163
▁abandon	-10.1163
▁protrud	-10.1163
▁apartment	-10.1163
▁venom	-10.1163
▁refresh	-10.1163
▁kinnaras	-10.1163
▁meteor	-10.1163
▁prompt	-10.1163
▁cherish	-10.1163
▁prostrated	-10.1163
▁echo	-10.1163
▁Aswini	-10.1163
▁behaviour	-10.1163
▁survival	-10.1164
▁uncertain	-10.1164
▁absence	-10.1164
▁quiver	-10.1164
▁located	-10.1164
▁lamentation	-10.1164
▁delusion	-10.1164
▁scream	-10.1165
▁astonish	-10.1165
▁objective	-10.1166
▁selfborn	-10.1166
▁sacrifices	-10.1166
▁truthfulness	-10.1166
▁exile	-10.1166
▁furious	-10.1166
▁fresh	-10.1167
▁conches	-10.1167
▁resona	-10.1168
▁achievement	-10.1168
▁selfcontrol	-10.1168
▁permitted	-10.1168
▁silk	-10.1168
▁mantra	-10.1169
▁winter	-10.1169
▁insult	-10.1169
▁swiftness	-10.117
▁dull	-10.1171
▁sex	-10.1171
▁mango	-10.1172
▁maces	-10.1173
▁songs	-10.1173
▁comfortably	-10.1174
▁griefstricken	-10.1174
▁couches	-10.1174
▁access	-10.1174
▁Thereupon	-10.1175
▁instantly	-10.1176
▁unimaginable	-10.1176
▁dispelled	-10.1177
▁scrap	-10.1177
▁etc	-10.1179
▁abide	-10.1179
▁pacify	-10.118
▁generated	-10.118
▁veil	-10.118
▁bells	-10.1181
▁multi	-10.1182
▁arrangement	-10.1182
▁personally	-10.1182
▁fury	-10.1184
▁cried	-10.1185
Is	-10.1185
▁thirst	-10.1185
▁thumb	-10.1186
li	-10.1186
▁teem	-10.1187
▁watching	-10.1187
▁pala	-10.1188
▁drown	-10.1188
▁joyfully	-10.1189
▁wretched	-10.1191
▁therefore	-10.1192
▁obe	-10.1194
▁promise	-10.1198
endou	-10.1199
▁drunken	-10.12
▁creeper	-10.12
dept	-10.1201
▁science	-10.1202
▁swords	-10.1203
mic	-10.1203
▁adharma	-10.1205
▁brooding	-10.1205
▁throbbing	-10.1208
▁belong	-10.1209
▁deliver	-10.121
▁herself	-10.121
▁skin	-10.121
▁stick	-10.1215
▁ultimate	-10.1216
▁Prasr	-10.1217
▁avoid	-10.1217
▁altars	-10.1219
▁ramparts	-10.1219
▁vehicles	-10.1219
▁necklaces	-10.122
▁arrange	-10.122
ating	-10.1225
▁accomplishment	-10.1226
▁green	-10.1228
ants	-10.123
▁string	-10.1232
ntelligent	-10.1236
▁strateg	-10.1236
▁evil	-10.1237
▁hugg	-10.1239
▁seers	-10.124
▁result	-10.124
▁Mithila	-10.1241
▁Airavata	-10.1241
▁wel	-10.1241
▁Kumbhakarna	-10.1241
sing	-10.1243
▁Which	-10.1244
▁loose	-10.1248
▁propiti	-10.125
ates	-10.1253
▁N	-10.1255
▁low	-10.1256
▁resist	-10.1256
▁threat	-10.1257
▁fulfilled	-10.1265
told	-10.1266
▁point	-10.1267
▁tru	-10.127
hing	-10.1273
▁stable	-10.1275
▁vows	-10.1277
▁Marutas	-10.1277
▁torn	-10.1278
▁nature	-10.1282
▁smell	-10.1291
▁longer	-10.1328
▁ascetics	-10.134
▁ranges	-10.1347
ost	-10.1349
ti	-10.1353
▁wept	-10.1355
icating	-10.1357
▁trunks	-10.1366
▁forty	-10.1372
▁valu	-10.1374
▁fingers	-10.1378
▁failed	-10.1389
▁offend	-10.1403
▁Pa	-10.1416
nse	-10.1423
▁departed	-10.1439
▁walls	-10.1448
roic	-10.147
▁meeting	-10.1471
▁pa	-10.1474
hile	-10.148
▁merits	-10.1484
▁slight	-10.1489
▁approaching	-10.1494
▁V	-10.1495
▁days	-10.1505
▁aim	-10.1506
rior	-10.1507
▁passed	-10.1509
artificial	-10.1516
▁"(	-10.1518
▁kins	-10.1519
llied	-10.1521
▁beam	-10.1531
▁cont	-10.1539
▁accompany	-10.1559
▁vi	-10.156
rning	-10.1574
▁miss	-10.1574
reproach	-10.1583
ika	-10.1596
avana	-10.1601
lessly	-10.1602
ell	-10.1609
ory	-10.1636
furi	-10.165
▁wa	-10.1671
▁narrat	-10.1671
lo	-10.1672
ck	-10.1673
▁agree	-10.1674
▁secure	-10.1708
all	-10.1718
so	-10.1723
est	-10.1726
ct	-10.174
▁witness	-10.1751
▁achieve	-10.1789
▁thin	-10.1831
mity	-10.1831
useless	-10.1837
▁cann	-10.184
▁gaze	-10.1852
▁Sh	-10.1859
▁secur	-10.1859
rous	-10.1868
▁recognis	-10.188
▁ignor	-10.189
▁tolerat	-10.1897
▁possibl	-10.1906
rmy	-10.1937
▁provide	-10.196
▁throw	-10.1962
un	-10.1989
yond	-10.2019
Ver	-10.2035
▁hid	-10.2059
im	-10.2091
atru	-10.2128
ie	-10.2141
lad	-10.2154
▁shak	-10.2162
aking	-10.2188
▁rise	-10.2228
▁notes	-10.2235
mana	-10.2254
▁sensi	-10.2263
▁exit	-10.2284
▁guard	-10.2305
▁consum	-10.2316
sion	-10.2318
R	-10.2325
tive	-10.2328
▁convers	-10.2342
asura	-10.2368
light	-10.2382
llen	-10.2395
▁serve	-10.2398
▁v	-10.2439
artha	-10.245
▁leav	-10.2486
▁succ	-10.2487
▁crown	-10.2498
▁De	-10.2499
▁Rudra	-10.2526
uff	-10.2526
time	-10.2533
▁sme	-10.2533
▁rut	-10.2554
▁pave	-10.2556
eld	-10.2557
▁Rudras	-10.2563
▁pl	-10.2577
ying	-10.2577
rapi	-10.2588
ke	-10.2592
clud	-10.2607
▁gran	-10.262
W	-10.2648
▁cur	-10.2677
▁mistakes	-10.2678
▁Wis	-10.2699
▁pr	-10.2708
▁compan	-10.2709
▁unti	-10.2716
take	-10.272
▁rang	-10.2744
▁press	-10.2758
pi	-10.2762
▁consume	-10.278
▁adorn	-10.2784
▁prepar	-10.2791
overed	-10.2794
▁aga	-10.2838
aken	-10.2842
nque	-10.2859
ew	-10.2869
▁suit	-10.2874
▁sc	-10.2875
known	-10.2876
▁preserve	-10.2879
pte	-10.2888
lessed	-10.2896
▁jar	-10.2921
▁dance	-10.2941
sire	-10.2969
te	-10.2981
icked	-10.299
▁sixt	-10.2997
▁range	-10.3012
Do	-10.3014
▁patt	-10.3019
lt	-10.3025
▁M	-10.3027
▁play	-10.3052
▁Man	-10.3059
▁dishe	-10.3074
▁wars	-10.3082
▁youth	-10.3095
stra	-10.3095
▁prec	-10.3131
eyond	-10.3157
sign	-10.3167
▁lad	-10.3172
ssing	-10.3191
▁husbands	-10.3222
▁reverberat	-10.33
▁unrighteous	-10.3312
▁Arishta	-10.3313
▁perceiv	-10.3314
▁drunkenness	-10.3315
enerals	-10.3321
b	-10.3323
confrontation	-10.3326
▁Fie	-10.3331
▁ru	-10.3353
▁soli	-10.3359
ins	-10.3369
illing	-10.3369
▁thick	-10.3371
ces	-10.3375
ight	-10.3387
nder	-10.34
▁signet	-10.3408
▁tolerate	-10.341
▁Sea	-10.3443
equen	-10.3453
▁announc	-10.3463
are	-10.3471
▁ti	-10.348
eventh	-10.3485
▁feat	-10.3489
▁gi	-10.3501
kra	-10.3502
▁ord	-10.3503
▁polite	-10.3505
sanct	-10.3559
▁successful	-10.3568
uous	-10.3609
old	-10.3617
hen	-10.3643
▁occ	-10.3651
well	-10.367
▁Al	-10.3711
ib	-10.3717
iled	-10.3721
if	-10.3731
dden	-10.3737
▁Pu	-10.3766
while	-10.3777
born	-10.3779
Janaki	-10.378
ered	-10.3781
▁gra	-10.3785
▁sle	-10.3785
----------	-10.3795
Mythili	-10.3796
when	-10.3802
▁supe	-10.3813
Jambavan	-10.3815
▁advance	-10.3818
Fie	-10.3826
colour	-10.3831
paste	-10.3837
M	-10.3844
▁test	-10.3849
ara	-10.3869
▁captur	-10.3877
Sri	-10.3884
tanding	-10.3887
▁mis	-10.3897
▁Think	-10.3897
▁canop	-10.3901
ird	-10.3921
formed	-10.3922
steady	-10.3924
▁final	-10.3945
P	-10.3966
il	-10.3969
▁Ne	-10.3976
▁stop	-10.3999
▁kee	-10.4
▁prepare	-10.4007
▁cha	-10.4008
pond	-10.4021
▁practice	-10.403
▁citadel	-10.4032
▁rock	-10.4036
▁sigh	-10.404
▁happen	-10.4044
▁bond	-10.4061
▁rope	-10.4063
▁suffer	-10.4069
▁illumin	-10.407
bha	-10.409
▁ju	-10.4093
▁Com	-10.4096
▁drunk	-10.4098
▁discharge	-10.4109
let	-10.4123
uge	-10.4123
▁piteous	-10.4124
▁quick	-10.4124
▁violent	-10.4125
▁brahmin	-10.4132
▁confront	-10.4133
▁rec	-10.4139
eparated	-10.4139
ish	-10.4139
vaka	-10.4146
▁intellect	-10.4147
▁Ayodhya	-10.4147
▁Brihaspati	-10.4147
▁Chitrakuta	-10.4147
▁Dvivida	-10.4147
▁Jatayu	-10.4147
▁Siddhas	-10.4147
▁Vidyujjihva	-10.4147
▁Vikata	-10.4147
▁ablaze	-10.4147
▁assembly	-10.4147
▁calamities	-10.4147
▁champak	-10.4147
▁damsels	-10.4147
▁dissension	-10.4147
▁elevated	-10.4147
▁enthusiasm	-10.4147
▁inaccessible	-10.4147
▁javelins	-10.4147
▁nipples	-10.4147
▁orphan	-10.4147
▁period	-10.4147
▁perpetrate	-10.4147
▁popular	-10.4147
▁prohibit	-10.4147
▁qualities	-10.4147
▁reluctant	-10.4147
▁suppose	-10.4147
▁uddalaka	-10.4147
▁austerity	-10.4147
▁calamity	-10.4147
▁decision	-10.4147
▁exertion	-10.4147
▁physi	-10.4147
▁target	-10.4147
▁transgress	-10.4147
▁enhance	-10.4147
▁frightful	-10.4147
▁reverential	-10.4147
▁gesture	-10.4147
▁rituals	-10.4147
▁wisdom	-10.4147
▁Virupaksha	-10.4147
▁cranes	-10.4147
▁quality	-10.4147
▁patience	-10.4147
▁gratitude	-10.4147
▁milk	-10.4147
▁displeasure	-10.4147
▁proportion	-10.4147
▁trespass	-10.4147
▁hermitage	-10.4147
▁correct	-10.4147
▁uragas	-10.4147
▁goblet	-10.4147
▁warfare	-10.4147
▁fortnight	-10.4147
▁waterfalls	-10.4147
Vibhisana	-10.4147
▁steadily	-10.4147
▁gloom	-10.4147
▁Feel	-10.4147
▁elsewhere	-10.4147
▁consciousness	-10.4147
▁Cupid	-10.4147
▁roads	-10.4147
▁Nila	-10.4147
▁realise	-10.4147
▁marriage	-10.4147
▁daityas	-10.4147
▁judgement	-10.4147
▁fourteen	-10.4147
▁Lakshmna	-10.4147
▁devastate	-10.4147
▁reverence	-10.4148
▁bowstring	-10.4148
▁powder	-10.4148
▁pyre	-10.4148
▁aroma	-10.4148
▁intoxicating	-10.4148
▁fangs	-10.4148
▁soothing	-10.4148
▁buds	-10.4148
▁quiet	-10.4148
▁anywhere	-10.4148
▁grandfather	-10.4148
▁vital	-10.4149
▁arrogance	-10.4149
▁Sunrise	-10.4149
▁effulgence	-10.4149
▁admirable	-10.4149
▁exist	-10.4149
▁ascertain	-10.4149
▁assist	-10.4149
▁entertain	-10.415
▁fifteen	-10.415
▁Later	-10.415
▁hoods	-10.415
▁pride	-10.415
▁terror	-10.415
▁wrath	-10.415
▁tanks	-10.4151
▁exercise	-10.4151
▁lick	-10.4151
▁tolerant	-10.4151
▁Vasus	-10.4152
▁tawny	-10.4153
▁group	-10.4153
▁portal	-10.4153
▁moral	-10.4153
▁selfknowledge	-10.4153
▁kindness	-10.4153
▁danger	-10.4154
▁usual	-10.4154
▁luxuries	-10.4154
▁Rshyamuka	-10.4154
lorious	-10.4154
▁relations	-10.4154
▁orbit	-10.4154
▁fift	-10.4154
▁obstruction	-10.4154
▁distressful	-10.4155
▁clasp	-10.4155
▁tightly	-10.4155
▁flight	-10.4155
▁pots	-10.4157
▁dependent	-10.4157
▁murder	-10.4157
▁snatch	-10.4157
▁armour	-10.4157
▁fans	-10.4158
▁calf	-10.4158
▁behalf	-10.4159
▁intent	-10.416
wept	-10.416
▁lament	-10.416
▁service	-10.4161
▁however	-10.4161
▁humiliation	-10.4161
▁bestow	-10.4161
▁brightness	-10.4161
▁entry	-10.4161
▁something	-10.4162
▁benefit	-10.4162
▁assembled	-10.4163
▁Arun	-10.4164
▁expression	-10.4165
▁terrifi	-10.4165
▁bowers	-10.4166
▁obedien	-10.4167
Distressed	-10.4167
▁wellbuilt	-10.4167
▁torrent	-10.4168
▁opposit	-10.4172
▁follower	-10.4172
▁scann	-10.4172
▁blo	-10.4176
▁lowly	-10.4176
▁circles	-10.4176
prinkle	-10.4177
ured	-10.4177
▁joints	-10.4177
▁gifts	-10.4179
ari	-10.4179
▁chains	-10.418
alutations	-10.418
gling	-10.418
lute	-10.4182
▁procla	-10.4182
▁cry	-10.4182
▁maidens	-10.4182
▁strides	-10.4182
▁cave	-10.4183
▁oppressed	-10.4183
▁disarrayed	-10.4183
lves	-10.4186
▁sitting	-10.4187
▁assail	-10.4195
▁terr	-10.4195
▁legs	-10.4199
▁cou	-10.4201
▁adversit	-10.4203
▁shrieking	-10.4207
ll	-10.4208
guise	-10.421
▁hue	-10.421
ody	-10.4211
▁besm	-10.4212
thaka	-10.4214
▁feast	-10.4215
foot	-10.4216
▁hill	-10.4218
▁subsi	-10.4218
▁bedecked	-10.4222
▁clubs	-10.4222
▁vain	-10.4223
▁wellwishers	-10.4223
▁sweat	-10.4225
sity	-10.4226
▁practis	-10.4226
▁da	-10.4227
ow	-10.4233
retriev	-10.4233
▁desolat	-10.4236
▁fringe	-10.4239
▁fate	-10.4239
▁Illu	-10.424
▁exceeding	-10.424
▁retain	-10.4246
▁scar	-10.4247
▁girdle	-10.425
▁rumbling	-10.425
▁assured	-10.425
▁continu	-10.4251
▁disclos	-10.4256
▁Kailasa	-10.4257
▁fond	-10.4257
▁ob	-10.4258
▁lakes	-10.4259
▁hard	-10.4261
▁citadels	-10.4263
▁brahmins	-10.4264
▁bonds	-10.4264
▁mu	-10.4264
▁flake	-10.4266
▁restrain	-10.4267
▁windgod	-10.4267
▁Brahmastram	-10.427
▁study	-10.4271
▁followers	-10.4275
▁ease	-10.4276
▁described	-10.4276
▁spots	-10.4281
▁bath	-10.4282
▁mild	-10.4282
▁marri	-10.4282
▁loss	-10.4283
▁weeping	-10.4284
▁bit	-10.4284
▁continued	-10.4285
▁wellb	-10.4289
▁roam	-10.4295
▁fleshy	-10.4295
▁panic	-10.4303
▁doomed	-10.4303
▁par	-10.4305
therwise	-10.431
ura	-10.4311
becom	-10.4314
▁achieved	-10.4315
▁dash	-10.4317
▁resound	-10.4324
▁pleasingly	-10.4325
▁expand	-10.4337
thers	-10.4337
ficial	-10.4338
▁competen	-10.4341
Love	-10.4348
▁recit	-10.4348
▁grateful	-10.435
▁assess	-10.4353
▁brightly	-10.4361
tired	-10.4361
▁Fire	-10.4362
▁infe	-10.4362
▁Hope	-10.4364
▁fists	-10.4365
imba	-10.4371
▁Enter	-10.4378
▁shine	-10.4378
▁figures	-10.4383
▁deliberat	-10.4387
▁catch	-10.4392
▁gentl	-10.4403
▁Please	-10.4411
anskrit	-10.4414
▁Mo	-10.4418
imilar	-10.4423
ill	-10.4425
enth	-10.4427
▁steady	-10.443
▁trea	-10.4431
▁restor	-10.4441
▁express	-10.4448
▁submit	-10.4458
▁conclu	-10.4462
▁stroll	-10.4469
ks	-10.4479
▁souls	-10.4482
▁rep	-10.4496
▁withered	-10.4502
lance	-10.4508
Get	-10.4511
ming	-10.4512
▁endur	-10.4514
▁exp	-10.4519
ul	-10.4526
ig	-10.4529
▁thirt	-10.4546
▁imag	-10.4566
▁deserv	-10.4605
▁desired	-10.4613
▁stain	-10.4614
▁Bh	-10.4623
▁deform	-10.4643
▁fu	-10.4655
craft	-10.4668
▁divid	-10.4672
sa	-10.4678
shed	-10.4683
pe	-10.4685
sting	-10.472
▁invok	-10.4722
resisti	-10.473
▁trick	-10.4741
▁wh	-10.4747
▁plann	-10.4751
▁Su	-10.4752
▁approv	-10.4755
ighing	-10.4787
▁sens	-10.4795
utilat	-10.4818
▁jewels	-10.4827
▁camel	-10.4829
ren	-10.483
end	-10.4833
oats	-10.4843
mind	-10.4849
ances	-10.4861
▁swa	-10.4866
▁lightnings	-10.4869
▁rainb	-10.488
ella	-10.4887
ailable	-10.4897
oes	-10.4897
ried	-10.4922
▁sha	-10.4922
dropping	-10.4924
▁halt	-10.4924
▁fi	-10.4951
▁fea	-10.4952
▁cu	-10.4952
ined	-10.4954
nin	-10.4959
wing	-10.4964
▁smel	-10.4974
terminat	-10.4977
▁attire	-10.4994
ls	-10.5003
dly	-10.5043
▁behav	-10.5046
)'.	-10.5081
als	-10.5081
▁controll	-10.5091
gant	-10.5125
▁pit	-10.515
▁rescu	-10.5155
▁emb	-10.5183
Her	-10.5186
verse	-10.5186
meration	-10.5204
tude	-10.5209
▁dim	-10.5209
rince	-10.5218
▁sour	-10.522
stance	-10.522
ver	-10.5254
▁fier	-10.5275
▁Vin	-10.5295
▁spi	-10.5297
▁Other	-10.5308
Think	-10.5316
ra	-10.5317
Tak	-10.5325
thir	-10.5332
▁sunk	-10.5356
fying	-10.5363
▁Sat	-10.5367
▁ra	-10.5374
eflect	-10.5382
her	-10.5422
giving	-10.5434
passed	-10.5435
▁spar	-10.5443
▁luxuri	-10.5463
cy	-10.5475
nes	-10.5497
▁thr	-10.5499
ya	-10.5499
▁respons	-10.5508
Hi	-10.5511
enga	-10.5519
▁Ved	-10.5522
▁sal	-10.5533
▁qua	-10.5536
▁constant	-10.5541
lay	-10.5557
▁che	-10.5558
▁actions	-10.5558
utes	-10.5576
oday	-10.5583
▁mater	-10.5594
njoy	-10.5601
▁preserv	-10.5606
▁age	-10.5634
▁comm	-10.5636
▁Bo	-10.5641
lter	-10.5691
▁ke	-10.5708
▁Va	-10.5709
▁swell	-10.5724
residing	-10.5724
venth	-10.5726
spir	-10.5754
ollow	-10.5762
▁unfai	-10.5763
war	-10.5766
▁priv	-10.5785
▁six	-10.5807
▁contra	-10.5807
ey	-10.581
▁dri	-10.5825
rave	-10.5825
thing	-10.583
▁create	-10.591
▁beaut	-10.5928
ense	-10.5959
▁mat	-10.6016
▁sink	-10.6054
six	-10.6086
cause	-10.6171
atta	-10.6172
▁au	-10.6174
she	-10.6179
tter	-10.619
date	-10.6208
▁vanquish	-10.6213
ese	-10.6217
▁whe	-10.6226
▁wor	-10.6237
▁gr	-10.6243
▁earn	-10.6267
gging	-10.6269
▁caress	-10.6307
▁twel	-10.6314
▁impos	-10.6357
long	-10.6364
ds	-10.6368
lade	-10.6374
mos	-10.6403
▁vigo	-10.6451
orn	-10.6455
eous	-10.646
▁tak	-10.6473
▁cour	-10.6507
▁trace	-10.6514
other	-10.6516
par	-10.654
Ev	-10.6547
▁uncle	-10.6555
lines	-10.6568
sh	-10.6578
▁forceful	-10.6587
▁ri	-10.6614
tala	-10.6618
▁scorch	-10.6636
here	-10.6647
nning	-10.6653
ake	-10.6658
▁sw	-10.6664
acious	-10.6695
ictory	-10.6701
ast	-10.6711
eck	-10.6722
▁fires	-10.6728
ging	-10.6766
iting	-10.6795
lar	-10.681
▁wra	-10.6828
les	-10.6873
nnot	-10.6878
▁ceremon	-10.6885
mali	-10.6899
gan	-10.69
▁cat	-10.6903
▁achiev	-10.6904
rill	-10.6918
▁chase	-10.6924
ini	-10.6947
quent	-10.6948
hu	-10.6949
▁lea	-10.696
ung	-10.6961
supported	-10.6969
alo	-10.6976
you	-10.6988
law	-10.6997
ings	-10.7
ary	-10.7002
rent	-10.7005
sixt	-10.7009
over	-10.7021
stri	-10.7025
J	-10.7044
▁clap	-10.7065
▁sari	-10.7076
▁Fr	-10.7088
▁conf	-10.7107
▁rejoice	-10.7111
▁blame	-10.712
rable	-10.7122
▁u	-10.7135
▁ruin	-10.7139
way	-10.7141
shaft	-10.7149
▁invoke	-10.7157
▁app	-10.7159
▁actua	-10.716
lly	-10.7165
▁Charanas	-10.7167
▁convince	-10.7167
▁incite	-10.7168
▁instruction	-10.7168
▁departure	-10.7169
▁decline	-10.7169
▁presume	-10.717
▁crushe	-10.7181
▁discovery	-10.7187
▁tempt	-10.7229
ference	-10.7231
who	-10.7237
▁converse	-10.7248
teous	-10.7249
▁permit	-10.7251
▁av	-10.7287
▁appre	-10.7287
nate	-10.729
▁wailing	-10.7293
▁amaz	-10.7352
▁infer	-10.7355
rageous	-10.7389
rig	-10.7406
▁drip	-10.7407
▁Tak	-10.7411
▁conversa	-10.7417
rush	-10.7426
ailing	-10.7446
▁del	-10.7457
▁reput	-10.7461
▁impose	-10.7466
▁prove	-10.7472
from	-10.7484
▁advise	-10.7497
ents	-10.7527
▁detai	-10.7528
great	-10.7531
eath	-10.7538
wear	-10.7542
At	-10.7546
eight	-10.7554
▁dist	-10.756
ca	-10.7571
▁verse	-10.761
arded	-10.7614
usted	-10.7614
▁base	-10.7621
▁horri	-10.7626
ood	-10.7628
rts	-10.767
con	-10.7676
ava	-10.7688
▁Sav	-10.771
hya	-10.7724
lum	-10.7731
cent	-10.7733
dy	-10.7754
omen	-10.7758
yavan	-10.7774
▁La	-10.7815
aku	-10.7818
▁Na	-10.7832
ven	-10.7833
▁tha	-10.784
▁Fi	-10.7841
▁try	-10.7842
▁butt	-10.7844
Lakshmana	-10.7853
▁embrace	-10.786
eat	-10.7865
▁Des	-10.7865
▁curl	-10.7867
▁suggest	-10.7872
break	-10.7891
ounds	-10.7893
under	-10.7893
▁deit	-10.7898
hva	-10.7923
dged	-10.7925
▁announce	-10.7929
isten	-10.7936
▁gem	-10.7936
tru	-10.7943
takes	-10.7961
life	-10.7979
nal	-10.798
power	-10.798
easur	-10.7984
kara	-10.7996
▁value	-10.7997
▁lumin	-10.8001
▁obli	-10.8005
just	-10.8007
three	-10.8008
▁Suka	-10.8009
rightened	-10.8014
fold	-10.8016
reafter	-10.8019
apped	-10.8021
courage	-10.8027
fulfill	-10.8028
crus	-10.8037
▁year	-10.8043
burnt	-10.8047
rily	-10.8051
Dasaratha	-10.8053
▁Pleas	-10.8055
thunderbolt	-10.806
▁says	-10.8061
▁wail	-10.8068
Vibhishana	-10.8077
lations	-10.8079
back	-10.8079
houses	-10.8079
brown	-10.808
dra	-10.8081
karna	-10.8086
Further	-10.8086
Give	-10.8087
Kakutstha	-10.8093
pardon	-10.8095
human	-10.8097
Hope	-10.8099
luck	-10.81
fingers	-10.8101
disposed	-10.8102
shadow	-10.8103
top	-10.8105
creeper	-10.8108
Fire	-10.8108
grateful	-10.8113
Now	-10.8115
og	-10.8116
▁extr	-10.8116
▁heed	-10.8128
Enter	-10.8133
nding	-10.8137
ground	-10.814
Tel	-10.8149
lust	-10.8154
mal	-10.8156
Where	-10.8169
describ	-10.8179
lished	-10.8199
limit	-10.8203
▁complete	-10.8205
sighing	-10.8207
into	-10.8208
▁Kar	-10.8222
▁vir	-10.8224
▁inform	-10.8226
▁Cou	-10.823
tud	-10.8231
ab	-10.8237
yal	-10.8238
▁obl	-10.8241
▁majest	-10.8253
ely	-10.8272
tuous	-10.8279
gue	-10.8287
▁chi	-10.8287
man	-10.8288
ddress	-10.8289
hel	-10.829
nda	-10.8296
▁gandharva	-10.8297
▁yojana	-10.8297
▁constellation	-10.8299
▁rakshasa	-10.8299
▁treasure	-10.83
▁piece	-10.8302
▁yaksha	-10.8302
▁vehicle	-10.8302
▁club	-10.8302
▁rampart	-10.8302
▁crocodile	-10.8302
▁trident	-10.8303
▁diamond	-10.8303
▁blameles	-10.8303
▁altar	-10.8303
▁pool	-10.8304
▁wellwisher	-10.8306
vana	-10.8307
▁donkey	-10.8309
▁finger	-10.831
No	-10.8314
▁highway	-10.8314
▁breast	-10.8315
ations	-10.8317
▁subm	-10.832
▁exceed	-10.8321
▁shriek	-10.8326
▁throbb	-10.8326
hurt	-10.8329
▁trumpet	-10.833
▁Veda	-10.8332
jected	-10.8333
▁weep	-10.8338
▁beca	-10.8343
effect	-10.8343
has	-10.8344
left	-10.8359
▁thigh	-10.8359
▁sco	-10.8359
spread	-10.8359
▁console	-10.8361
▁travers	-10.8365
▁blind	-10.837
▁energ	-10.837
ailed	-10.837
Des	-10.8374
cogni	-10.8374
▁Lakshman	-10.8389
tton	-10.8392
▁sudden	-10.8396
trongarmed	-10.84
▁brood	-10.84
akarna	-10.8401
▁lake	-10.8401
▁separate	-10.8402
empt	-10.8403
▁firm	-10.8404
▁aw	-10.8405
▁dispel	-10.8409
▁object	-10.8412
arlier	-10.8413
▁radia	-10.8413
▁conciliat	-10.8413
▁disappoint	-10.8413
▁complex	-10.8414
▁arrogan	-10.8416
▁celebrat	-10.8417
▁kidnapp	-10.8417
▁neglect	-10.8417
Exhausted	-10.8417
exuberant	-10.8417
▁Himalaya	-10.8417
▁Kaikeyi	-10.8417
▁Pariyatra	-10.8417
▁Pisacha	-10.8417
▁Prajapatis	-10.8417
▁Pulastya	-10.8417
▁Sambasadana	-10.8417
▁Sonitaksha	-10.8417
▁Vasistha	-10.8417
▁Viradha	-10.8417
▁articles	-10.8417
▁bamboos	-10.8417
▁bashful	-10.8417
▁benevolen	-10.8417
▁collyrium	-10.8417
▁contemptible	-10.8417
▁crumpled	-10.8417
▁cuckoos	-10.8417
▁dejection	-10.8417
▁diploma	-10.8417
▁disfigured	-10.8417
▁emperor	-10.8417
▁encompass	-10.8417
▁evident	-10.8417
▁exhaustion	-10.8417
▁filaments	-10.8417
▁forbearance	-10.8417
▁frustrated	-10.8417
▁handicapped	-10.8417
▁immortality	-10.8417
▁immortals	-10.8417
▁intertwined	-10.8417
▁marketplaces	-10.8417
▁mitigate	-10.8417
▁nightroamers	-10.8417
▁nostrils	-10.8417
▁obliquely	-10.8417
▁palanquin	-10.8417
▁parasols	-10.8417
▁peerless	-10.8417
▁perfect	-10.8417
▁preceptor	-10.8417
▁pristine	-10.8417
▁privilege	-10.8417
▁rabbit	-10.8417
▁ravish	-10.8417
▁saviour	-10.8417
▁sweettongued	-10.8417
▁tomorrow	-10.8417
▁unimpeachable	-10.8417
▁whirlpool	-10.8417
▁yajnas	-10.8417
▁Capture	-10.8417
▁Vishrava	-10.8417
▁celestial	-10.8417
▁extensive	-10.8417
▁intellectuals	-10.8417
▁recovery	-10.8417
▁relaxed	-10.8417
▁southwest	-10.8417
▁testicles	-10.8417
persuasi	-10.8417
▁Ajamukhi	-10.8417
▁Hiranyanabha	-10.8417
▁armpit	-10.8417
▁mallets	-10.8417
▁whereabouts	-10.8417
▁Vaisravana	-10.8417
▁dwarf	-10.8417
▁generous	-10.8417
▁tradition	-10.8417
▁intermedia	-10.8417
▁Bhima	-10.8417
▁contemp	-10.8417
▁manliness	-10.8417
▁pursue	-10.8417
zz	-10.8417
▁intimidat	-10.8417
▁straight	-10.8417
▁firmament	-10.8417
▁imagination	-10.8417
▁ceaseless	-10.8417
▁concentrat	-10.8417
▁honeywine	-10.8417
▁sustain	-10.8417
▁usurp	-10.8417
▁hospital	-10.8417
▁kinnera	-10.8417
▁tusks	-10.8417
▁method	-10.8417
▁imprison	-10.8417
queeze	-10.8417
▁diminished	-10.8417
▁seriously	-10.8417
▁solace	-10.8417
▁sideglances	-10.8417
▁snapped	-10.8417
▁symmetrical	-10.8417
▁fretwork	-10.8417
▁battlefield	-10.8417
▁bushes	-10.8417
▁austere	-10.8417
▁drowsy	-10.8417
miketu	-10.8417
▁unique	-10.8417
▁surface	-10.8417
Except	-10.8417
▁Paulastya	-10.8417
▁fibre	-10.8417
▁screech	-10.8417
▁fairwaist	-10.8417
▁earnestly	-10.8417
▁deceitful	-10.8417
▁earornaments	-10.8417
▁terrifying	-10.8417
▁Mahaparsva	-10.8417
▁retreat	-10.8417
ficient	-10.8417
upaksha	-10.8417
▁mountaincaves	-10.8417
▁request	-10.8417
▁encourag	-10.8417
▁cavern	-10.8417
▁Lamba	-10.8417
▁Daksha	-10.8417
▁brief	-10.8418
▁smiling	-10.8418
▁Spring	-10.8418
▁duties	-10.8418
▁hardship	-10.8418
▁abashed	-10.8418
▁Riksha	-10.8418
▁danava	-10.8418
griva	-10.8418
▁burden	-10.8418
▁regret	-10.8418
▁imagined	-10.8418
▁fortynin	-10.8418
▁guardian	-10.8418
▁pannaga	-10.8418
shatriya	-10.8418
▁girl	-10.8418
attalion	-10.8418
▁banner	-10.8418
▁incense	-10.8418
▁behove	-10.8418
▁stature	-10.8419
▁blasted	-10.8419
▁blessings	-10.8419
▁digest	-10.8419
▁Surya	-10.8419
▁conch	-10.8419
▁tabor	-10.8419
▁disguise	-10.8419
▁sapta	-10.8419
▁foretell	-10.8419
▁illuminat	-10.842
▁guessed	-10.842
▁Garland	-10.842
ortation	-10.842
▁massive	-10.842
▁slaughter	-10.8421
▁eyeb	-10.8421
▁meaningless	-10.8421
▁swarm	-10.8421
violence	-10.8421
▁Nala	-10.8421
▁pigment	-10.8421
▁blighted	-10.8421
▁disappointment	-10.8421
agnas	-10.8421
Honour	-10.8421
▁tumble	-10.8422
▁stainless	-10.8422
straps	-10.8422
▁vision	-10.8422
▁medic	-10.8422
▁Mars	-10.8422
▁circum	-10.8422
▁enthus	-10.8422
▁operati	-10.8422
Kesari	-10.8423
mination	-10.8423
imukha	-10.8423
▁foresee	-10.8423
▁foresight	-10.8423
▁goats	-10.8424
▁dirt	-10.8424
▁false	-10.8425
▁silent	-10.8425
▁Pleasure	-10.8425
▁frost	-10.8425
▁transform	-10.8425
Well	-10.8425
▁weaponry	-10.8425
▁Never	-10.8425
▁Ganga	-10.8426
▁Maruts	-10.8426
▁monkeychief	-10.8426
▁Vidyu	-10.8426
▁horripilating	-10.8426
rocious	-10.8427
▁cursed	-10.8427
▁Mount	-10.8427
hini	-10.8427
▁dalliance	-10.8427
icate	-10.8428
▁grieving	-10.8428
▁country	-10.8428
▁Lakshamana	-10.8428
▁Nikumbha	-10.8428
▁nether	-10.8428
▁leftover	-10.8428
▁resort	-10.8428
▁spotted	-10.8428
▁judg	-10.8429
▁extinguish	-10.8429
▁Attac	-10.8429
▁Drink	-10.8429
▁swim	-10.843
fluttering	-10.843
▁humbly	-10.843
▁wilted	-10.8431
▁monkeylord	-10.8431
▁outrageous	-10.8432
▁fellow	-10.8432
ermitted	-10.8432
▁axle	-10.8433
▁overspread	-10.8433
▁monkeyform	-10.8433
▁continue	-10.8435
▁pluck	-10.8435
▁limb	-10.8435
▁preparation	-10.8436
▁renounc	-10.8436
▁para	-10.8436
▁defend	-10.8436
▁Dh	-10.8437
▁fortitude	-10.8437
▁expect	-10.8437
▁examine	-10.8437
defence	-10.8437
▁matter	-10.8437
nxious	-10.8438
▁concern	-10.8439
▁archery	-10.8439
▁petal	-10.844
▁personifi	-10.844
▁completely	-10.8441
xercise	-10.8441
▁hesitate	-10.8442
liberate	-10.8442
Remind	-10.8442
Beautiful	-10.8443
▁motion	-10.8444
hides	-10.8444
▁island	-10.8444
lessness	-10.8445
hara	-10.8446
▁pur	-10.8447
▁believe	-10.8447
▁build	-10.8447
▁Nara	-10.8447
▁boundless	-10.8448
▁bloodred	-10.845
▁worries	-10.8451
▁forestdweller	-10.8451
▁derid	-10.8451
▁bless	-10.8452
▁fainted	-10.8452
▁home	-10.8453
▁necklace	-10.8454
▁regain	-10.8454
▁below	-10.8455
▁devas	-10.8457
logy	-10.8458
▁shake	-10.8461
ulf	-10.8461
▁collapsing	-10.8461
▁joyful	-10.8463
▁contingent	-10.8463
strongshouldered	-10.8463
Fortunate	-10.8463
predic	-10.8464
▁resident	-10.8464
lating	-10.8465
▁reasonable	-10.8466
▁mightyarmed	-10.8466
▁tape	-10.8466
▁term	-10.8467
▁boars	-10.8467
▁doors	-10.8468
istic	-10.8468
▁forgive	-10.847
than	-10.8471
▁jun	-10.8472
▁temples	-10.8473
▁scholars	-10.8473
▁Adityas	-10.8473
▁pri	-10.8474
ravas	-10.8474
▁squa	-10.8474
▁stairways	-10.8475
▁despa	-10.8476
▁reunit	-10.8477
▁spa	-10.8478
rilliant	-10.8482
joint	-10.8482
▁gall	-10.8483
▁intens	-10.8484
▁lust	-10.8486
▁personal	-10.8487
hivering	-10.8488
▁text	-10.8489
▁strik	-10.8492
▁humiliat	-10.8493
▁blamed	-10.8493
▁withdrawn	-10.8496
▁insan	-10.8496
▁last	-10.8499
▁Dur	-10.8503
▁Vidyadhar	-10.8506
▁devote	-10.8506
▁impetuous	-10.8508
▁traversing	-10.851
▁ineffect	-10.851
▁trumpeting	-10.8511
▁destin	-10.8513
etic	-10.8514
▁stair	-10.8516
▁waterfowl	-10.8518
uspicio	-10.8521
▁homes	-10.8521
▁unk	-10.8521
star	-10.8522
▁inauspicious	-10.8525
▁fourtus	-10.8527
resume	-10.853
blow	-10.853
▁quarrell	-10.8531
gar	-10.8533
▁pools	-10.8534
ejected	-10.8535
▁achieving	-10.8535
▁treasures	-10.8536
▁rakshasas	-10.8536
▁constellations	-10.8536
▁illuminated	-10.8536
▁plants	-10.8536
▁plant	-10.8537
▁respond	-10.8537
▁widow	-10.8538
▁statement	-10.8538
eously	-10.8539
▁crim	-10.854
aces	-10.8544
shoka	-10.8544
▁deliberated	-10.8546
▁reflection	-10.8547
▁aloud	-10.8548
Look	-10.8548
▁safeguard	-10.8549
▁la	-10.855
shana	-10.8554
ux	-10.8555
▁hoof	-10.8557
▁bor	-10.8559
▁wailed	-10.856
▁mesh	-10.8562
▁years	-10.8563
rup	-10.8563
▁prev	-10.8564
▁met	-10.8565
ize	-10.8566
▁conciliation	-10.8569
acy	-10.8569
▁effulgen	-10.8569
▁wander	-10.8569
▁mist	-10.8571
▁kindly	-10.8572
▁Tripura	-10.8576
▁crescent	-10.8577
▁Sagara	-10.8577
▁Provoked	-10.8578
▁High	-10.858
▁manifest	-10.8581
vell	-10.8583
neral	-10.8587
▁Gi	-10.8588
▁hues	-10.8591
orious	-10.8593
▁dances	-10.8593
▁flam	-10.8596
▁posts	-10.8597
iz	-10.8599
▁practices	-10.8599
▁claw	-10.8603
▁highways	-10.8607
point	-10.8624
▁Dhan	-10.8627
▁loads	-10.8629
▁dog	-10.8634
▁ninet	-10.8636
urved	-10.8637
▁enquired	-10.8637
▁leg	-10.8637
▁naga	-10.8644
▁woods	-10.8644
stead	-10.8645
viol	-10.8648
▁throne	-10.865
▁chatter	-10.8651
▁captive	-10.8652
▁relat	-10.8656
▁excite	-10.8657
satiate	-10.8661
▁numbers	-10.8662
▁structures	-10.8662
▁nightrangers	-10.8662
wilder	-10.8663
▁Bhaskar	-10.8663
gresses	-10.8663
▁horn	-10.8664
▁devi	-10.8667
▁fest	-10.8667
osed	-10.867
▁wr	-10.8674
▁yearn	-10.8676
▁blinded	-10.8679
▁'(	-10.868
loqu	-10.8681
▁thundered	-10.8682
▁excuse	-10.8684
▁announced	-10.8686
▁Seiz	-10.8692
edient	-10.8699
▁gait	-10.8702
▁famili	-10.8703
▁affect	-10.8704
▁allies	-10.8704
▁sweetly	-10.8708
lighting	-10.8716
▁negotiate	-10.8722
▁hour	-10.8725
identified	-10.8732
▁Vas	-10.8735
▁hunt	-10.8735
keep	-10.8735
▁initia	-10.874
▁kn	-10.8744
▁pardon	-10.875
▁eaten	-10.8757
ures	-10.8758
embling	-10.8778
▁blows	-10.8782
▁disposed	-10.8784
▁meaning	-10.8787
etwork	-10.8787
▁punishments	-10.879
▁threatenings	-10.8798
▁bitte	-10.8804
▁revers	-10.8808
pregna	-10.8814
valr	-10.8818
▁pour	-10.8819
lump	-10.882
▁canopie	-10.8824
log	-10.8829
▁churn	-10.883
▁wealthy	-10.8833
▁chin	-10.8836
▁brown	-10.8842
urvey	-10.8849
▁Sukan	-10.8852
▁countenances	-10.8852
raksha	-10.8864
▁servants	-10.8867
ssary	-10.8869
▁priya	-10.8889
▁brea	-10.8896
▁Res	-10.8897
perturb	-10.89
▁containe	-10.8906
unsuccessful	-10.8907
shy	-10.8908
▁waft	-10.8913
▁laughed	-10.8913
▁tongues	-10.8913
▁polit	-10.8916
▁respects	-10.8918
▁circu	-10.8922
barbed	-10.8922
▁monst	-10.8924
▁spike	-10.8925
▁clos	-10.8927
▁thre	-10.8929
▁jumper	-10.8935
penetra	-10.8945
▁tur	-10.8973
rself	-10.8977
▁Spur	-10.8977
▁Kamad	-10.8985
▁resolut	-10.899
▁forts	-10.8996
▁perv	-10.9001
▁trac	-10.9004
hed	-10.9005
unted	-10.901
kling	-10.9014
wives	-10.902
urn	-10.9024
▁halls	-10.9038
▁whi	-10.9044
▁bold	-10.9044
▁vol	-10.9046
we	-10.9051
ulp	-10.9067
▁pad	-10.9075
Long	-10.9076
▁Ma	-10.9083
successfully	-10.909
▁hell	-10.9111
▁entrances	-10.9121
wh	-10.9122
strict	-10.9135
vasu	-10.9137
▁ax	-10.9149
▁cord	-10.9152
▁sobb	-10.9153
nite	-10.9164
▁necks	-10.9178
▁Of	-10.9181
▁bene	-10.919
competen	-10.919
lod	-10.9192
▁sple	-10.9198
▁Pond	-10.9205
▁wi	-10.9205
▁sit	-10.9215
flies	-10.9229
▁add	-10.9236
glo	-10.9248
mil	-10.9253
▁engr	-10.9265
bled	-10.9265
tening	-10.9286
cul	-10.9291
▁Sala	-10.9295
ref	-10.9298
prints	-10.9299
▁wound	-10.9318
▁watche	-10.932
passionate	-10.9322
shame	-10.9322
▁slayed	-10.9346
randfather	-10.9349
▁Cr	-10.937
▁Vay	-10.9373
▁messengers	-10.9379
▁dies	-10.938
robed	-10.9385
▁invi	-10.9385
▁Main	-10.9388
lige	-10.94
perated	-10.9404
▁break	-10.9406
llow	-10.9419
▁fat	-10.943
eft	-10.9436
naga	-10.944
▁sang	-10.9443
▁poli	-10.9448
▁attach	-10.9465
righteousness	-10.9466
▁tatter	-10.9469
alls	-10.9474
▁Vis	-10.9485
illar	-10.9497
obeyed	-10.9499
ashed	-10.9506
▁bir	-10.9516
fore	-10.9546
▁gues	-10.9573
▁bus	-10.9585
▁dre	-10.9588
ments	-10.9588
ade	-10.9595
averse	-10.9599
Ca	-10.96
▁rested	-10.9607
Man	-10.9608
▁ext	-10.9616
udd	-10.9616
adamba	-10.9618
set	-10.9632
scribed	-10.9636
▁delighting	-10.9643
sses	-10.9647
ard	-10.9671
ata	-10.9672
▁Swa	-10.9677
roused	-10.9684
tracted	-10.9689
tinge	-10.969
akra	-10.9691
ste	-10.9699
▁beautifully	-10.9718
▁bra	-10.9729
ang	-10.9751
orment	-10.9752
▁nei	-10.9754
umali	-10.9756
▁shar	-10.9768
▁ret	-10.9768
▁shi	-10.9794
▁rival	-10.981
mation	-10.9811
afts	-10.9813
▁pathway	-10.9819
▁emitt	-10.9823
ickly	-10.9833
osal	-10.9843
conspic	-10.9857
▁sevent	-10.9861
void	-10.9865
domit	-10.9884
▁undertak	-10.9905
▁def	-10.9905
▁court	-10.9908
dour	-10.9911
fy	-10.9924
erful	-10.9928
V	-10.9933
dem	-10.9936
ery	-10.9942
dur	-10.9947
laud	-10.9948
ival	-10.9959
▁howl	-10.9965
▁tra	-10.9974
▁awe	-10.9991
▁crosse	-10.9993
order	-11.0003
loved	-11.0004
▁meal	-11.0008
▁remov	-11.0016
udra	-11.0032
ndered	-11.0035
▁treat	-11.0044
▁grieve	-11.0048
diment	-11.005
udge	-11.0065
▁flou	-11.0075
mid	-11.0077
nature	-11.0086
▁ador	-11.0089
riches	-11.0092
▁ec	-11.0096
▁pu	-11.0101
▁shor	-11.0112
▁exhal	-11.0117
▁Ob	-11.0118
qua	-11.012
gain	-11.0143
immed	-11.0148
▁pitch	-11.0165
rved	-11.018
lung	-11.0186
▁acts	-11.0222
▁ceremoni	-11.0226
rap	-11.0236
▁ride	-11.0263
▁appr	-11.0274
▁cost	-11.0277
▁fur	-11.0278
lso	-11.0279
tiny	-11.028
ambara	-11.0282
▁pos	-11.0282
▁bef	-11.0296
onsider	-11.0316
▁communicat	-11.0353
▁mutter	-11.0355
▁tr	-11.0357
hon	-11.0365
▁non	-11.0369
▁sur	-11.0381
▁unknow	-11.0386
▁coronat	-11.0387
▁abus	-11.039
ear	-11.0432
ually	-11.0434
thron	-11.0442
▁ask	-11.0446
ized	-11.0465
▁Ro	-11.0474
▁scorche	-11.0492
sider	-11.0538
▁Wear	-11.0544
▁giv	-11.0586
▁eleven	-11.0594
clear	-11.0598
unts	-11.0607
captivat	-11.061
aying	-11.062
ecause	-11.0631
ksha	-11.0635
▁revel	-11.0643
De	-11.0651
▁deed	-11.0654
ster	-11.0658
utters	-11.0665
ether	-11.0693
hati	-11.0704
ral	-11.0705
▁beak	-11.0717
fuse	-11.0747
▁indulge	-11.075
tem	-11.0764
tresses	-11.0769
ices	-11.0794
▁severe	-11.0824
▁li	-11.0836
ol	-11.0843
lowing	-11.0851
▁basi	-11.087
lor	-11.0872
▁lov	-11.0874
Come	-11.0905
▁unhapp	-11.0951
▁pres	-11.096
elo	-11.0981
ayed	-11.1005
orde	-11.101
▁exten	-11.1012
sts	-11.1018
▁ag	-11.1039
urio	-11.1048
▁oppose	-11.1057
nquire	-11.1071
ttling	-11.1118
dom	-11.1143
Si	-11.1164
▁Vajra	-11.1166
damshtra	-11.1197
ived	-11.1211
▁los	-11.1217
▁vanquishe	-11.1248
▁trai	-11.1248
▁wellf	-11.125
ngry	-11.1261
ela	-11.1261
elm	-11.1294
emain	-11.133
▁abo	-11.1334
▁driv	-11.1339
▁complet	-11.1353
▁line	-11.1359
hip	-11.1373
▁saluta	-11.1379
illed	-11.1384
strange	-11.1388
▁mos	-11.139
ess	-11.1394
▁era	-11.1401
be	-11.1405
▁motiv	-11.141
anim	-11.1413
fol	-11.1417
prooted	-11.1426
▁bab	-11.1426
ni	-11.1465
▁amaze	-11.1515
priv	-11.1544
ender	-11.1554
movable	-11.1573
▁Wi	-11.1585
▁tremble	-11.1594
new	-11.1597
▁Aga	-11.1605
swerv	-11.1608
▁commande	-11.1631
wok	-11.1634
▁mi	-11.1646
res	-11.1646
▁fortyse	-11.1702
---------	-11.1713
▁Fl	-11.1719
hy	-11.1753
vered	-11.1754
itable	-11.1772
▁Ku	-11.1777
▁thirtyse	-11.1799
▁sand	-11.1803
ap	-11.1803
▁witnesse	-11.1804
anci	-11.1806
▁Suns	-11.1816
▁fiftyse	-11.1816
▁twentyse	-11.1819
▁le	-11.1822
▁inf	-11.1826
▁sixtyse	-11.1834
▁strang	-11.1837
litting	-11.1837
▁Kak	-11.1849
quired	-11.1863
atu	-11.1903
▁begg	-11.1911
▁des	-11.1924
littl	-11.1933
eigh	-11.1942
tain	-11.1952
essed	-11.1957
dest	-11.1964
uttering	-11.1976
str	-11.2001
icious	-11.2008
▁slap	-11.2011
▁exude	-11.2013
▁freed	-11.2013
orm	-11.202
▁inquir	-11.206
▁Ho	-11.2064
▁late	-11.2077
lding	-11.2078
▁bypass	-11.208
spect	-11.2089
x	-11.2094
▁gl	-11.2104
itement	-11.2138
▁conce	-11.2143
fted	-11.2147
▁lumino	-11.2155
dign	-11.2189
▁deli	-11.2197
urning	-11.2202
outs	-11.2209
Ris	-11.2214
▁pat	-11.2222
▁ir	-11.2229
▁escap	-11.223
ult	-11.224
Desir	-11.2241
▁stup	-11.2242
ns	-11.2298
▁Lo	-11.235
ro	-11.235
eng	-11.238
leaf	-11.24
▁infi	-11.2402
ensur	-11.2417
▁weigh	-11.2422
▁kiss	-11.2434
▁dra	-11.2437
owing	-11.2444
laka	-11.246
▁bott	-11.246
unset	-11.2461
ide	-11.2471
use	-11.2474
▁nec	-11.252
angle	-11.2523
aw	-11.2525
Ob	-11.2547
anag	-11.2568
▁followe	-11.2581
fall	-11.2594
▁luxur	-11.2609
cha	-11.2614
▁reli	-11.2615
throne	-11.2625
▁tho	-11.2626
kshav	-11.2632
▁unit	-11.264
ified	-11.2642
▁ind	-11.2643
▁visi	-11.2676
▁havi	-11.2679
▁exud	-11.2698
▁yo	-11.2703
pping	-11.2723
usk	-11.2725
Cha	-11.274
ivate	-11.2742
▁shoo	-11.275
nger	-11.2755
alm	-11.277
▁coronate	-11.2783
▁eart	-11.2797
▁Pro	-11.2804
lin	-11.282
▁communicate	-11.2827
iation	-11.2841
oiled	-11.2861
▁watch	-11.2873
rtha	-11.2877
▁abuse	-11.2883
▁resid	-11.2883
ans	-11.2886
ayant	-11.289
curr	-11.2896
An	-11.2898
▁cro	-11.2915
▁bur	-11.2933
▁til	-11.2935
▁advis	-11.2959
▁swea	-11.297
hana	-11.297
rely	-11.2975
rds	-11.3009
▁heave	-11.301
ndow	-11.3017
▁Pl	-11.3028
▁dart	-11.3033
azing	-11.3049
▁pitche	-11.3076
soci	-11.308
▁mate	-11.3085
tract	-11.3092
ounded	-11.3114
lain	-11.3116
▁gain	-11.3142
winking	-11.3179
▁furn	-11.3199
En	-11.3226
ngle	-11.3256
▁compare	-11.3304
ield	-11.3309
▁Da	-11.3318
ila	-11.3329
▁ultimat	-11.3334
▁rear	-11.3334
▁Pr	-11.3345
▁hu	-11.3369
▁befall	-11.339
ests	-11.3412
measur	-11.3415
tics	-11.343
mach	-11.3442
argeeyed	-11.3469
hot	-11.3471
▁kne	-11.3474
nga	-11.3477
▁Vajrada	-11.348
gun	-11.3487
▁hor	-11.3505
▁conjucture	-11.3512
rovidence	-11.3522
▁propel	-11.3525
▁fla	-11.3527
▁perver	-11.3528
▁dimin	-11.3537
hudamani	-11.3546
▁beh	-11.3572
op	-11.3599
▁kar	-11.3612
sm	-11.3618
mi	-11.3625
oon	-11.3659
▁wit	-11.3661
▁climbe	-11.3667
--	-11.3669
▁matte	-11.3679
▁Una	-11.3688
ones	-11.3697
father	-11.37
Hear	-11.3704
▁Pres	-11.3711
herefore	-11.3733
ep	-11.3766
▁Madhuvan	-11.3771
fe	-11.3805
▁evening	-11.3815
racious	-11.3815
▁port	-11.3828
▁Wit	-11.3835
abor	-11.3837
▁chee	-11.384
bank	-11.3867
Besi	-11.3889
▁Lank	-11.3891
honest	-11.3891
▁pla	-11.3892
▁Comb	-11.3901
onkey	-11.3901
▁Mak	-11.393
ec	-11.3946
will	-11.3953
▁stat	-11.3959
ncircl	-11.3975
▁enquir	-11.3982
▁Vajradams	-11.3986
lack	-11.3988
▁si	-11.399
eeding	-11.4008
Offer	-11.4009
▁reflecti	-11.4034
wa	-11.4037
lands	-11.4039
▁eigh	-11.4039
gh	-11.4058
ipping	-11.4085
▁Further	-11.4089
tracti	-11.4099
▁earl	-11.4102
el	-11.4122
▁robe	-11.4127
▁yoursel	-11.4138
▁shri	-11.4169
▁ge	-11.4175
▁wonders	-11.4179
▁attache	-11.4185
▁fears	-11.422
▁adore	-11.4222
ix	-11.423
ph	-11.423
sage	-11.4257
▁Grand	-11.4271
asu	-11.4286
east	-11.4294
hat	-11.4295
tunate	-11.4304
its	-11.4311
hould	-11.4329
sperate	-11.434
demons	-11.4346
▁obey	-11.4348
▁bewi	-11.4371
ckling	-11.4371
▁col	-11.4386
▁rai	-11.4389
eth	-11.4398
▁aug	-11.4402
utter	-11.4424
▁conten	-11.4438
voked	-11.4457
scend	-11.446
▁imped	-11.4594
▁pea	-11.4595
ines	-11.4598
▁emerge	-11.4623
▁Fu	-11.4644
table	-11.4682
umul	-11.4694
rivall	-11.4696
▁loo	-11.4699
mountain	-11.4704
▁perc	-11.4712
illus	-11.4713
var	-11.4715
▁str	-11.4717
this	-11.4719
gans	-11.4723
row	-11.473
elt	-11.4747
even	-11.4751
ome	-11.476
wise	-11.4774
nable	-11.4788
ove	-11.4805
▁fol	-11.4809
arni	-11.4827
▁ta	-11.4828
▁piti	-11.4876
rise	-11.488
▁Sur	-11.4893
▁thir	-11.4896
class	-11.4896
▁bea	-11.4905
Lanka	-11.4917
▁mag	-11.4923
▁repu	-11.4939
ighty	-11.4943
▁ve	-11.4944
tted	-11.4981
▁exh	-11.4997
inda	-11.4999
▁deliberati	-11.5014
tended	-11.5016
tricken	-11.5044
▁U	-11.5057
lady	-11.5082
aid	-11.5087
su	-11.5088
tern	-11.5092
earching	-11.5094
ud	-11.5105
about	-11.5119
▁Dea	-11.5119
Dea	-11.5132
▁cal	-11.5149
ular	-11.5152
▁dea	-11.5156
post	-11.5164
ply	-11.5169
mble	-11.5171
fire	-11.5193
stalk	-11.5195
▁cup	-11.5199
▁wea	-11.5199
▁dece	-11.5199
▁Kama	-11.5205
▁uns	-11.5221
rp	-11.524
▁oceans	-11.5246
▁Ras	-11.5256
mp	-11.5257
high	-11.5264
▁handl	-11.5266
anqu	-11.5271
▁unb	-11.5274
iya	-11.5275
aller	-11.5282
▁distres	-11.5284
dren	-11.5295
▁dwell	-11.5304
said	-11.5307
inding	-11.5318
Carr	-11.532
can	-11.5331
Pla	-11.5333
▁barbe	-11.5335
ching	-11.534
trust	-11.534
ind	-11.5355
▁daughterin	-11.5357
▁benefi	-11.5364
mighty	-11.5368
mmers	-11.5375
aths	-11.5376
flowers	-11.5391
hold	-11.5391
▁negotiat	-11.5392
hol	-11.5395
bed	-11.5397
fear	-11.5397
▁amb	-11.54
ages	-11.5404
huge	-11.5418
divid	-11.5428
▁fra	-11.5429
▁prof	-11.543
▁wid	-11.543
palace	-11.5434
wife	-11.5437
cial	-11.5442
rly	-11.5443
gold	-11.5444
brother	-11.5449
sks	-11.5453
▁carr	-11.5455
▁fade	-11.546
wind	-11.5461
dharma	-11.5467
▁fortyf	-11.5469
dies	-11.5474
dara	-11.5478
white	-11.5483
drawn	-11.5489
eless	-11.549
world	-11.5494
itness	-11.5495
▁expan	-11.5499
▁laps	-11.5505
what	-11.5505
Dadhimukha	-11.5506
chief	-11.5507
Brahma	-11.5514
manner	-11.5518
lew	-11.5522
think	-11.5524
earth	-11.5524
should	-11.5527
contain	-11.5528
▁store	-11.553
present	-11.5532
▁pictur	-11.5537
before	-11.5541
Indrajit	-11.5548
rted	-11.5551
released	-11.5554
Gu	-11.556
work	-11.5561
▁ar	-11.5566
▁inquire	-11.5567
action	-11.557
kini	-11.557
▁chant	-11.557
two	-11.557
▁shav	-11.5583
abode	-11.5589
amb	-11.559
feet	-11.5592
ze	-11.5594
lightning	-11.56
moon	-11.5601
▁excu	-11.5604
count	-11.5604
caus	-11.5605
jewel	-11.561
▁speci	-11.5613
Madhuvanam	-11.5613
half	-11.5617
killing	-11.5618
because	-11.5621
drink	-11.5621
indeed	-11.5622
complexion	-11.5624
Kubera	-11.5626
▁nine	-11.5628
tral	-11.5628
tched	-11.5629
gran	-11.5629
Brahmastra	-11.563
worthy	-11.5635
alas	-11.5639
bbing	-11.564
strong	-11.564
Mahendra	-11.564
gods	-11.564
wood	-11.5641
Mainaka	-11.5641
atching	-11.5643
noticed	-11.5644
Go	-11.5645
palms	-11.5647
collect	-11.5648
free	-11.5652
shore	-11.5652
protector	-11.5655
ugly	-11.5658
missiles	-11.5658
▁fou	-11.566
garland	-11.566
living	-11.5663
Sampati	-11.5664
Trijata	-11.5664
possess	-11.5666
fast	-11.5667
charanas	-11.5668
majestic	-11.5669
behind	-11.567
Behold	-11.5671
fortune	-11.5672
incident	-11.5673
nails	-11.5673
windgod	-11.5673
everything	-11.5675
Kumbhakarna	-11.5676
ascetic	-11.5677
establish	-11.5677
across	-11.5677
Airavata	-11.5677
eager	-11.5678
Mithila	-11.5678
parts	-11.5679
manifest	-11.568
crescent	-11.568
Provoked	-11.568
Tripura	-11.5681
Sagara	-11.5681
Kailasa	-11.5681
thorough	-11.5681
els	-11.5682
girdle	-11.5683
Madhuvan	-11.5684
spirit	-11.5684
result	-11.5684
brahmin	-11.5685
blinded	-11.5685
thinking	-11.5685
roaring	-11.5686
Brahmastram	-11.5687
regard	-11.5688
Which	-11.5688
effulgen	-11.5689
necklace	-11.569
thought	-11.5691
conscious	-11.5692
protected	-11.5693
High	-11.5694
voice	-11.5694
avas	-11.5695
evil	-11.5695
waist	-11.5697
▁vo	-11.5697
▁cre	-11.5698
strateg	-11.5699
propiti	-11.57
conciliation	-11.5704
undreds	-11.5704
▁Bhas	-11.5705
sleeping	-11.5707
rama	-11.5707
limb	-11.571
Know	-11.5711
signet	-11.5715
spike	-11.5718
arrange	-11.5719
▁emit	-11.5722
uncle	-11.5722
meaning	-11.5724
ction	-11.5726
behav	-11.5729
uda	-11.573
tin	-11.5731
happiness	-11.5733
▁mura	-11.5738
ik	-11.574
bows	-11.5742
swan	-11.5742
lips	-11.5745
equi	-11.5748
petal	-11.5748
▁sixtyf	-11.5752
▁Pur	-11.5753
soul	-11.5757
cured	-11.576
plant	-11.5763
placed	-11.5763
▁quarrel	-11.5775
ished	-11.5776
▁conque	-11.5782
posts	-11.5787
▁pig	-11.579
uma	-11.579
tching	-11.579
arva	-11.5792
plann	-11.5792
ient	-11.5796
fowls	-11.58
▁deser	-11.5811
Dev	-11.5819
protect	-11.5822
banks	-11.5822
Illu	-11.5823
▁clo	-11.5826
ranges	-11.5826
going	-11.5827
▁impetu	-11.5831
hero	-11.5832
▁discharg	-11.5832
position	-11.5833
▁nob	-11.5835
▁skil	-11.5836
dead	-11.5839
ifi	-11.5841
▁impa	-11.5841
pen	-11.5841
▁seiz	-11.5843
ieved	-11.5853
assured	-11.586
plica	-11.586
ttered	-11.5867
aming	-11.5876
bsorbed	-11.588
Pa	-11.5884
zed	-11.5888
▁fil	-11.5892
▁relative	-11.5894
▁disarray	-11.5894
▁scholar	-11.5894
▁Aditya	-11.5894
▁oppress	-11.5894
▁siddha	-11.5894
▁stairway	-11.5895
▁wretch	-11.5895
▁instrument	-11.5895
▁temple	-11.5895
▁general	-11.5895
smell	-11.5896
being	-11.5896
▁scatter	-11.5896
▁afflict	-11.5897
▁mineral	-11.5898
rumbling	-11.5899
▁smash	-11.5899
▁contract	-11.5899
▁armlet	-11.5899
▁awaken	-11.5899
soon	-11.59
▁nail	-11.5901
▁lamp	-11.5902
▁Ram	-11.5902
▁stride	-11.5902
▁sword	-11.5905
▁righteousnes	-11.5905
▁fix	-11.5906
▁maiden	-11.5906
▁step	-11.5909
▁accord	-11.591
▁rag	-11.5913
since	-11.5915
▁contingen	-11.5917
titude	-11.5918
▁collaps	-11.5919
▁differen	-11.5919
▁cows	-11.5921
▁crore	-11.5922
cally	-11.5924
▁coral	-11.5925
vey	-11.5926
tention	-11.5928
arry	-11.5936
▁obs	-11.5942
create	-11.5944
eyes	-11.5945
▁saf	-11.5946
▁fun	-11.5946
▁una	-11.5948
stric	-11.595
cket	-11.5953
▁unimaginabl	-11.5955
gni	-11.5955
▁boar	-11.5957
▁enrage	-11.5958
▁twent	-11.5959
▁dispose	-11.5959
erhaps	-11.5961
▁libera	-11.5962
▁emissar	-11.5965
▁describ	-11.5965
▁discover	-11.5966
▁archer	-11.5969
▁copper	-11.5971
▁identif	-11.5971
mbling	-11.5973
lieve	-11.5975
ically	-11.5976
▁faint	-11.5976
▁dispelle	-11.5976
▁propr	-11.5978
▁dependen	-11.598
harma	-11.5982
▁cap	-11.5988
▁Kishkind	-11.5989
nounce	-11.5989
▁Lakshaman	-11.5989
▁Nikumbh	-11.5989
▁Rshyamuk	-11.5989
▁Kailas	-11.599
▁chario	-11.5991
teadfast	-11.5992
elfcontrol	-11.5993
▁repeated	-11.5993
atisfied	-11.5994
▁Hiran	-11.5998
ahead	-11.5999
bana	-11.5999
▁forestdwell	-11.6
▁horripilati	-11.6
▁resem	-11.6002
▁notice	-11.6002
▁relie	-11.6002
essengers	-11.6003
▁wellwish	-11.6003
▁instant	-11.6004
Nand	-11.6004
▁Lakshm	-11.6004
▁trump	-11.6004
Ogres	-11.6006
▁vidyadhar	-11.6007
ivine	-11.6007
ador	-11.6008
rijata	-11.6008
emember	-11.6008
ighsouled	-11.6008
▁unassailab	-11.6009
▁gift	-11.601
eople	-11.601
elatives	-11.601
▁chain	-11.601
▁Brah	-11.601
▁dread	-11.6011
errifi	-11.6011
▁Mahapars	-11.6011
▁Paulast	-11.6012
▁symmetr	-11.6012
oc	-11.6012
▁asceti	-11.6012
▁Gandha	-11.6012
ocated	-11.6012
▁Kumbha	-11.6012
▁gandh	-11.6012
▁appropr	-11.6012
▁langu	-11.6012
nerab	-11.6013
----	-11.6013
runk	-11.6013
▁dyna	-11.6013
▁Stre	-11.6013
minist	-11.6013
▁accompl	-11.6013
▁horrip	-11.6013
▁excess	-11.6013
muni	-11.6015
ketu	-11.6015
nowledge	-11.6016
▁summ	-11.6016
jata	-11.6016
▁accom	-11.6016
▁frag	-11.6017
lders	-11.6018
▁happi	-11.6018
▁Laks	-11.6019
spectable	-11.6019
treams	-11.6019
▁Vaid	-11.602
lameless	-11.602
mortal	-11.602
quisit	-11.6021
obes	-11.6022
▁seize	-11.6023
stil	-11.6023
timate	-11.6023
dmir	-11.6023
▁hermit	-11.6025
charged	-11.6026
▁Hiranya	-11.6027
rossing	-11.6028
▁pacif	-11.6028
▁suff	-11.6029
ipu	-11.6029
Other	-11.6029
ghtful	-11.603
▁careful	-11.6033
ace	-11.6033
ificat	-11.6034
▁affl	-11.6036
▁releas	-11.6038
tayu	-11.6038
uence	-11.6043
ration	-11.6043
dehi	-11.6044
fron	-11.6045
pila	-11.6048
asara	-11.6049
porting	-11.6049
unks	-11.6049
ieving	-11.6053
▁sorr	-11.6053
scap	-11.6056
elib	-11.6056
▁ordina	-11.6058
andharvas	-11.6058
ctions	-11.6062
gress	-11.6063
▁span	-11.6064
▁disp	-11.6067
ntoxicated	-11.6067
uments	-11.6068
akshas	-11.6069
jit	-11.6071
mati	-11.6072
plet	-11.6074
▁Vais	-11.6074
riti	-11.6075
guage	-11.6077
ctic	-11.6077
▁Manda	-11.6078
▁Ref	-11.6079
rooding	-11.6082
▁encha	-11.6083
▁vic	-11.6087
kuta	-11.6089
▁instruct	-11.6089
fulfilled	-11.609
▁Kum	-11.609
urmu	-11.609
umber	-11.6091
tification	-11.6092
▁reside	-11.6093
rceful	-11.6095
▁trou	-11.6097
ience	-11.6098
cient	-11.6104
tect	-11.6106
oulders	-11.6107
ecognis	-11.6108
▁generat	-11.6111
rrows	-11.6112
ueen	-11.6113
▁dire	-11.612
▁vul	-11.6122
▁trans	-11.6122
iksha	-11.6123
antly	-11.6124
▁inco	-11.6125
gth	-11.6125
▁Saga	-11.613
arefully	-11.6134
▁Dri	-11.6136
rembling	-11.6136
maka	-11.6137
ope	-11.6139
▁sura	-11.6139
Comb	-11.6142
ddle	-11.6142
▁tend	-11.6146
cant	-11.6148
▁admir	-11.6149
xtreme	-11.6149
within	-11.615
ravana	-11.6151
▁Mal	-11.6152
▁orb	-11.6152
▁tran	-11.6152
▁dau	-11.6153
utas	-11.6155
udg	-11.6156
mbled	-11.6156
uj	-11.6167
Son	-11.617
ropitiat	-11.6172
ptive	-11.6172
▁Asw	-11.6174
▁trave	-11.6175
▁manif	-11.6175
erceiv	-11.6175
Sam	-11.6179
unta	-11.6181
andara	-11.6182
isters	-11.6184
▁Kaus	-11.6185
▁reg	-11.6188
ells	-11.6189
liqu	-11.619
educ	-11.6191
stya	-11.6191
kness	-11.6192
tenti	-11.6198
▁rumbl	-11.62
habit	-11.62
awny	-11.6201
ny	-11.6202
mbl	-11.6202
nstra	-11.6206
▁displeas	-11.6208
scents	-11.6208
lution	-11.6208
tune	-11.6212
off	-11.6217
▁swo	-11.6217
ager	-11.6217
olling	-11.6218
separa	-11.6222
anasa	-11.6228
bstruct	-11.623
ealis	-11.6232
▁jud	-11.6233
▁Gang	-11.6236
nsions	-11.6236
▁cham	-11.6237
gard	-11.6238
wings	-11.6248
ification	-11.6254
▁Du	-11.6257
peared	-11.6258
rosperous	-11.6267
ahas	-11.6267
stick	-11.6272
▁twentyf	-11.6274
asure	-11.6275
cean	-11.6276
iding	-11.6278
▁sag	-11.6279
▁pigm	-11.628
▁maid	-11.6281
▁ray	-11.6281
espect	-11.6282
llumin	-11.6283
stron	-11.6287
linded	-11.6288
iage	-11.629
osts	-11.6292
visit	-11.6295
▁divin	-11.6296
slow	-11.6297
▁cove	-11.63
ndica	-11.6302
heris	-11.6303
ommand	-11.6309
vul	-11.6312
▁fiftyf	-11.6316
▁Ash	-11.6318
gion	-11.6325
tary	-11.6327
rd	-11.633
▁fri	-11.6335
trace	-11.6336
bul	-11.6337
▁mon	-11.634
ckle	-11.6344
ruits	-11.6347
ected	-11.6349
nk	-11.6352
▁tot	-11.6354
▁conscious	-11.6356
▁door	-11.6357
efore	-11.637
tyeig	-11.6372
pines	-11.6373
▁hesitat	-11.6376
▁Kes	-11.6376
▁Rever	-11.6378
ately	-11.6382
arg	-11.6382
ulted	-11.6383
ski	-11.6384
▁Me	-11.6389
soiled	-11.6402
bolt	-11.6404
quit	-11.6404
lit	-11.6408
uman	-11.6409
▁Maha	-11.6413
tating	-11.6414
uccess	-11.6415
v	-11.6419
stonis	-11.6424
shap	-11.6425
eamed	-11.6426
iors	-11.6428
archi	-11.6432
turb	-11.6433
▁abusi	-11.6434
eech	-11.6435
err	-11.6438
Wis	-11.6439
▁gras	-11.6444
itri	-11.6445
▁bet	-11.6445
▁market	-11.6452
▁insta	-11.6453
pil	-11.6456
▁immor	-11.6456
▁sla	-11.6457
aisrava	-11.6464
▁shoulder	-11.6466
tinue	-11.6467
ght	-11.6476
▁Vir	-11.648
ject	-11.6491
rupa	-11.6493
▁jo	-11.6499
▁ago	-11.6501
▁lustr	-11.6504
jihva	-11.6506
seeing	-11.6509
▁comb	-11.6511
▁sign	-11.6532
son	-11.6535
lp	-11.6537
sume	-11.6538
icken	-11.6538
ects	-11.6549
hesitat	-11.6549
▁coun	-11.6552
hur	-11.6554
▁futil	-11.6555
nstead	-11.6555
inated	-11.6555
▁lovel	-11.6561
ands	-11.6569
ested	-11.6572
tensi	-11.6577
bs	-11.6578
▁assa	-11.6619
▁wag	-11.6623
▁moth	-11.6626
▁bloods	-11.6633
selves	-11.6633
nguish	-11.6633
ruit	-11.6634
key	-11.6641
iff	-11.6642
rop	-11.6642
▁asses	-11.6648
di	-11.6658
dweller	-11.6677
eeting	-11.6677
▁ja	-11.6678
bit	-11.6682
rance	-11.6685
riendship	-11.6685
▁scen	-11.6694
asram	-11.6695
▁Sal	-11.6695
nquir	-11.6695
▁wha	-11.6697
▁circle	-11.6716
▁obst	-11.6721
▁stren	-11.6722
outher	-11.6722
ragas	-11.6723
▁smo	-11.6725
lation	-11.6733
▁rem	-11.6742
stract	-11.6751
orbid	-11.6756
ossom	-11.6758
▁Mad	-11.6758
▁entr	-11.6773
▁wing	-11.6777
lutt	-11.6783
▁Ra	-11.6784
heart	-11.6787
bode	-11.6789
weeping	-11.6796
▁dissol	-11.6802
flame	-11.6808
standing	-11.681
▁wellp	-11.6811
rage	-11.6811
ignit	-11.6812
ft	-11.6821
iness	-11.6823
proper	-11.6825
era	-11.6827
agic	-11.683
agon	-11.6837
maya	-11.6849
stress	-11.6853
done	-11.6854
▁elat	-11.6854
ego	-11.6863
tected	-11.6868
eig	-11.6869
string	-11.687
▁tire	-11.6876
nswer	-11.6888
rested	-11.6889
ommunicate	-11.6895
▁dus	-11.6896
ps	-11.6905
uru	-11.6915
▁bas	-11.692
▁worrie	-11.6928
▁stea	-11.6931
ngu	-11.6942
▁waste	-11.6965
cles	-11.6975
▁fortyfi	-11.6977
ngles	-11.6986
▁distan	-11.6992
▁reveren	-11.6992
case	-11.6999
▁twi	-11.7003
▁ad	-11.7004
▁susp	-11.7006
▁fal	-11.703
hless	-11.703
draw	-11.7039
killed	-11.7044
hall	-11.7047
eri	-11.7049
▁event	-11.7049
artial	-11.7058
▁Wa	-11.7071
rals	-11.7072
alk	-11.7073
ier	-11.7075
mna	-11.7087
propri	-11.7089
▁plea	-11.7091
asas	-11.7094
▁conta	-11.7095
aru	-11.71
int	-11.7101
ick	-11.7101
▁sixtyfi	-11.7103
▁valian	-11.711
ets	-11.7119
▁nois	-11.7125
▁hare	-11.7137
mise	-11.7144
ameless	-11.7154
oons	-11.7155
ains	-11.7162
▁fiftyfi	-11.7174
▁twentyfi	-11.7178
▁dem	-11.7189
change	-11.7191
rry	-11.7195
▁Ni	-11.7195
▁fr	-11.7197
uar	-11.7208
testin	-11.7218
riot	-11.7236
speak	-11.7238
▁sun	-11.7261
▁asura	-11.7271
ighted	-11.7285
▁suggesti	-11.7285
▁thirtyfi	-11.7292
Vis	-11.7309
reak	-11.7328
eva	-11.7333
ron	-11.7333
llies	-11.7334
ales	-11.7344
omin	-11.7364
▁humbl	-11.7371
escen	-11.7383
fer	-11.7383
▁decei	-11.7396
▁adv	-11.7398
ruda	-11.7408
activ	-11.7414
tle	-11.7426
ament	-11.7433
▁forti	-11.744
mare	-11.7468
tiated	-11.7486
espondent	-11.7515
overing	-11.7522
ghter	-11.7544
ats	-11.757
▁joint	-11.7575
everberat	-11.7581
▁lot	-11.7591
dage	-11.7592
▁pol	-11.7593
ath	-11.7599
ingly	-11.7606
ulate	-11.7611
omy	-11.7615
▁pros	-11.7616
sible	-11.7627
stay	-11.7634
opes	-11.7638
gs	-11.7642
compar	-11.7646
▁cate	-11.7648
ledge	-11.7653
Fr	-11.766
lower	-11.7666
▁nights	-11.7668
▁kara	-11.7672
laughter	-11.7677
▁absen	-11.7693
kha	-11.7693
mento	-11.7696
▁compe	-11.7699
cream	-11.7701
nside	-11.7712
▁Kr	-11.7715
tified	-11.7715
▁fulfill	-11.7718
ovid	-11.7722
▁Car	-11.7724
four	-11.7725
tap	-11.7735
▁post	-11.7752
eena	-11.7753
asses	-11.7756
▁exhi	-11.7762
pite	-11.7764
▁Pra	-11.7797
▁thirtyf	-11.7807
win	-11.7815
shoulders	-11.7828
tering	-11.7834
urred	-11.785
oms	-11.7869
▁mess	-11.7878
ssess	-11.7881
eful	-11.7897
scent	-11.79
rment	-11.7902
▁pen	-11.7906
uest	-11.792
▁eas	-11.7925
?.	-11.7936
ine	-11.7971
icul	-11.798
nthusias	-11.7989
rrifying	-11.8001
eats	-11.8026
rish	-11.806
▁boo	-11.8063
▁tort	-11.8064
▁blu	-11.8069
iving	-11.8069
▁peac	-11.8075
aras	-11.8075
des	-11.8076
asa	-11.8083
ev	-11.8084
▁unbe	-11.8103
arb	-11.8125
tly	-11.8134
erness	-11.8144
thor	-11.8148
ue	-11.8167
commen	-11.8199
Ma	-11.8243
dle	-11.8247
▁corr	-11.8252
oise	-11.8268
ambas	-11.8284
▁bre	-11.829
hada	-11.8313
lse	-11.833
▁Mah	-11.833
othing	-11.8375
▁wro	-11.8392
mitted	-11.8411
▁sporti	-11.8439
▁pin	-11.8447
ira	-11.8463
▁floo	-11.8465
ingers	-11.8467
ilation	-11.8481
elling	-11.8487
ia	-11.8501
seek	-11.8507
▁Son	-11.8513
oud	-11.8515
ffering	-11.8516
ief	-11.8518
eem	-11.8521
belli	-11.8522
▁gu	-11.8526
Ne	-11.8531
cept	-11.8533
▁grac	-11.8536
gest	-11.8563
amshtra	-11.8568
chanting	-11.8575
oin	-11.858
ho	-11.8585
agas	-11.8595
▁reac	-11.8597
prim	-11.8609
As	-11.8653
sure	-11.8659
orse	-11.8681
trated	-11.8687
rned	-11.8697
▁res	-11.87
aratha	-11.8701
▁Kaku	-11.8704
▁ble	-11.8705
sted	-11.871
ws	-11.8725
▁pas	-11.8731
av	-11.8732
▁impe	-11.8745
etu	-11.8745
▁Si	-11.875
kin	-11.8752
▁Yu	-11.8753
ccum	-11.876
br	-11.8762
▁yours	-11.8776
nestly	-11.8785
▁gui	-11.8837
▁und	-11.8904
ouched	-11.8917
▁unders	-11.8922
sk	-11.8926
found	-11.8957
pard	-11.8957
own	-11.8977
was	-11.8997
▁plu	-11.9004
▁Ang	-11.9009
attles	-11.9013
ox	-11.9029
▁Kn	-11.9036
resses	-11.9038
ination	-11.9054
clusi	-11.9058
exter	-11.9067
ita	-11.9087
versity	-11.9112
ife	-11.9126
cing	-11.9137
air	-11.9159
portion	-11.9164
xi	-11.9176
anks	-11.9177
fallen	-11.9187
haste	-11.919
matt	-11.9203
▁bu	-11.921
▁beautif	-11.9211
shada	-11.9217
▁bi	-11.9235
medi	-11.9236
▁quee	-11.9238
ses	-11.9248
eaten	-11.9263
pana	-11.927
numer	-11.9279
art	-11.9286
▁nin	-11.9287
▁statu	-11.929
danga	-11.9295
rell	-11.9305
▁marr	-11.9311
abha	-11.9314
▁dam	-11.933
ddh	-11.9341
round	-11.9365
▁clea	-11.9382
Of	-11.9385
▁Pul	-11.941
▁reverberati	-11.9418
▁sen	-11.9423
▁seas	-11.9461
tche	-11.9469
gone	-11.9498
tta	-11.951
moth	-11.9532
ula	-11.9556
Mak	-11.9557
ore	-11.9571
appy	-11.9575
ote	-11.9579
walke	-11.9594
vers	-11.9621
science	-11.9623
nces	-11.9627
amayan	-11.9634
mad	-11.9649
ama	-11.9663
▁det	-11.968
▁pun	-11.9741
vely	-11.9743
mala	-11.9756
rb	-11.9764
▁assu	-11.9771
ckw	-11.9774
lini	-11.9787
▁aff	-11.9789
immo	-11.9793
▁Desc	-11.9798
▁gam	-11.9813
rmed	-11.9819
▁beauti	-11.9827
ering	-11.9845
▁inde	-11.9848
▁unhe	-11.9848
ongarmed	-11.9855
ills	-11.9872
▁bes	-11.9884
ber	-11.9884
day	-11.9885
▁dee	-11.9923
vent	-11.9929
oma	-11.9934
rand	-11.9936
pair	-11.9938
horn	-11.9939
▁pai	-11.9959
▁prope	-11.9962
oned	-11.9967
oul	-11.9976
move	-11.9979
ta	-11.9981
tablish	-11.9998
▁moo	-12.0027
read	-12.0055
▁inte	-12.0077
▁dan	-12.0085
vious	-12.0106
ors	-12.0123
assur	-12.0136
▁rous	-12.0153
gate	-12.0197
easts	-12.0251
eeyed	-12.0273
▁fie	-12.0297
▁inter	-12.0298
▁prospe	-12.0328
▁j	-12.0329
▁rev	-12.0339
ice	-12.0364
▁dest	-12.0381
stakes	-12.0427
gor	-12.0453
aj	-12.0454
▁kil	-12.0465
od	-12.0471
rought	-12.0473
▁seer	-12.0474
▁testi	-12.0491
iate	-12.052
verance	-12.0542
falli	-12.0566
kas	-12.0579
▁Brahmas	-12.0584
lim	-12.0602
ityas	-12.0612
Roa	-12.0614
ner	-12.0637
▁depos	-12.067
▁exti	-12.0673
rroga	-12.0693
line	-12.0717
▁buil	-12.0752
gr	-12.0773
▁moonli	-12.0783
▁lie	-12.0791
lling	-12.0809
▁endear	-12.0814
low	-12.084
dow	-12.0852
eed	-12.0853
iated	-12.0854
utation	-12.0859
sancti	-12.0898
▁danc	-12.0922
fit	-12.0928
athed	-12.0943
Fo	-12.0948
apes	-12.0984
▁prom	-12.1002
reator	-12.1053
▁ev	-12.1057
▁dai	-12.1077
ctory	-12.1092
▁tolera	-12.1102
auspicious	-12.1107
▁cas	-12.111
ain	-12.1113
posit	-12.1119
▁.	-12.1133
mis	-12.1133
▁besi	-12.1134
field	-12.1146
do	-12.1173
arin	-12.1187
▁spac	-12.1194
vaku	-12.1199
ode	-12.1209
ium	-12.1232
▁Has	-12.1235
▁roll	-12.1245
lacke	-12.1256
Fi	-12.1262
▁cra	-12.1279
▁swe	-12.128
anded	-12.1299
lluc	-12.1299
eemin	-12.1301
stre	-12.1301
ndodari	-12.1305
▁cor	-12.1342
sound	-12.1343
msu	-12.1356
rything	-12.1375
tioned	-12.1416
tal	-12.1429
tops	-12.143
Se	-12.143
ag	-12.1439
▁ide	-12.1447
band	-12.1466
eadily	-12.1482
rnate	-12.1484
Shak	-12.149
ian	-12.1511
und	-12.1535
▁Ast	-12.154
eeds	-12.1555
cks	-12.1588
dhya	-12.1611
mes	-12.1613
▁ste	-12.1619
assoc	-12.1639
▁dev	-12.1645
cast	-12.1646
▁humili	-12.1652
crue	-12.1667
▁Hero	-12.1678
▁gla	-12.168
rightly	-12.1682
mbr	-12.1708
reaten	-12.1732
▁cot	-12.1745
▁qu	-12.175
tall	-12.1756
ttles	-12.1777
▁rive	-12.1794
avour	-12.1801
rying	-12.1803
▁sma	-12.1815
▁silen	-12.1829
aten	-12.1851
▁surr	-12.187
tened	-12.189
nagas	-12.1901
mpart	-12.1917
trug	-12.1918
▁cle	-12.1919
▁eff	-12.1922
uk	-12.1985
trap	-12.2037
eque	-12.2065
ible	-12.207
aced	-12.2077
isted	-12.2113
apt	-12.2114
seen	-12.2138
Ve	-12.221
looke	-12.2244
nu	-12.2245
mas	-12.2254
▁vie	-12.2263
hap	-12.2302
▁acc	-12.2317
si	-12.2338
umn	-12.2388
upid	-12.2416
▁compa	-12.2421
▁rese	-12.2421
gul	-12.2427
▁descri	-12.2464
▁Ta	-12.2475
▁sixtys	-12.2479
aching	-12.2486
▁fortys	-12.2489
▁stro	-12.2507
▁deva	-12.2507
ena	-12.2534
alt	-12.2545
▁refr	-12.2558
▁lan	-12.2575
▁northe	-12.2601
redi	-12.2608
ced	-12.2693
mous	-12.2711
aning	-12.2732
Kar	-12.2736
tha	-12.2817
▁spir	-12.2883
eel	-12.2885
mple	-12.2887
look	-12.2887
lliance	-12.2902
jac	-12.2906
nly	-12.2908
etics	-12.2909
ere	-12.2935
ously	-12.2945
realis	-12.2958
▁promi	-12.2974
▁impo	-12.2976
idel	-12.2993
▁twentys	-12.3001
dering	-12.3022
enty	-12.3031
oots	-12.3037
isting	-12.3038
▁fiftys	-12.3046
vilminded	-12.3058
▁dro	-12.307
gra	-12.3071
nted	-12.3085
nar	-12.3095
male	-12.311
dition	-12.3131
welf	-12.3133
ousand	-12.3233
▁prepara	-12.3253
avy	-12.3323
mate	-12.3393
▁tin	-12.3424
▁inc	-12.3454
▁equ	-12.347
▁refu	-12.3503
▁Rem	-12.3507
ture	-12.3525
sual	-12.3526
ak	-12.3556
rround	-12.3603
ension	-12.3636
tant	-12.364
anka	-12.3646
form	-12.3675
ifice	-12.37
decorat	-12.371
eg	-12.3733
▁perishe	-12.3749
mance	-12.3758
▁veh	-12.3767
aps	-12.378
mpass	-12.3791
erci	-12.3817
knowing	-12.3825
▁Fe	-12.3827
eavy	-12.3845
itra	-12.3846
ierce	-12.3866
ani	-12.3872
atha	-12.3911
▁indi	-12.3914
sured	-12.3986
scat	-12.4075
grow	-12.4078
plend	-12.4092
nke	-12.4098
▁insti	-12.4149
decorate	-12.4161
▁bos	-12.4172
lumina	-12.4199
▁thirtys	-12.4246
▁beli	-12.4258
bey	-12.4261
▁trembl	-12.4278
▁qui	-12.4286
lish	-12.4306
ilt	-12.434
▁ut	-12.4341
remo	-12.4397
tes	-12.4419
tivated	-12.4428
ours	-12.4442
rce	-12.4449
nsider	-12.4457
▁sacrific	-12.4459
ums	-12.4501
yfully	-12.454
cess	-12.4562
emis	-12.4604
▁deadl	-12.4605
ramp	-12.4621
eref	-12.4647
.).	-12.4651
rity	-12.4673
▁bel	-12.4682
▁charmi	-12.469
ndar	-12.4692
ooded	-12.4723
alker	-12.4723
oy	-12.4738
gured	-12.4748
olt	-12.4769
rovoked	-12.4802
vakar	-12.4808
idly	-12.4822
rooted	-12.4829
tif	-12.4832
▁cen	-12.484
damba	-12.4873
▁consi	-12.4914
Wear	-12.4949
▁gro	-12.4955
rium	-12.4964
▁unst	-12.4992
▁sap	-12.4993
▁ac	-12.5015
happy	-12.5031
struct	-12.5047
▁rit	-12.5047
▁hum	-12.5053
close	-12.5055
rings	-12.5055
)'	-12.5059
flow	-12.5059
▁Sou	-12.5062
▁succe	-12.5069
hakti	-12.5119
▁Ri	-12.512
tr	-12.5194
▁fas	-12.5203
scree	-12.5222
▁sav	-12.5222
spi	-12.5232
therinlaw	-12.5284
foll	-12.5287
▁infa	-12.5294
nity	-12.531
▁hitt	-12.5322
▁dig	-12.5337
mage	-12.5359
iverse	-12.5361
▁moti	-12.5385
ols	-12.5387
ayan	-12.5414
lies	-12.5459
▁rea	-12.5461
lte	-12.5465
nstruct	-12.5491
arated	-12.5516
mshtra	-12.5535
▁overc	-12.5563
realise	-12.5574
nsion	-12.5578
▁depr	-12.56
▁aut	-12.5607
Sw	-12.561
ull	-12.5624
wers	-12.5632
▁equa	-12.5648
ommande	-12.5693
▁exc	-12.5732
tri	-12.5734
▁securi	-12.5735
spa	-12.5756
mpl	-12.5766
quire	-12.5774
hear	-12.5778
▁te	-12.5797
uish	-12.5811
ilminded	-12.5831
▁attr	-12.5843
oved	-12.5856
deous	-12.5856
circle	-12.5876
rib	-12.5886
▁repli	-12.5902
▁heroi	-12.5907
ationed	-12.5913
yth	-12.5926
▁wells	-12.5962
▁grou	-12.6013
ifying	-12.6016
ining	-12.602
ple	-12.6025
▁comple	-12.6096
unda	-12.6132
▁wri	-12.6142
▁contr	-12.615
erc	-12.6157
▁Tri	-12.616
▁exam	-12.6174
▁comfortabl	-12.6186
▁oppos	-12.6192
alks	-12.6218
▁Fa	-12.624
▁compl	-12.6242
ovable	-12.625
lone	-12.6291
eam	-12.6364
stati	-12.637
▁addi	-12.6386
▁exce	-12.6402
risi	-12.6444
nauspicious	-12.6502
▁na	-12.6508
nec	-12.652
▁foe	-12.6528
ightly	-12.6553
▁Vish	-12.6553
tis	-12.6587
rni	-12.6609
▁inv	-12.6627
yan	-12.6641
▁Ad	-12.6651
tw	-12.6674
▁rece	-12.6675
▁blacke	-12.6811
circl	-12.6816
▁ref	-12.6853
tus	-12.6871
io	-12.6873
rich	-12.6874
ourin	-12.6888
elled	-12.6894
vour	-12.6931
▁disti	-12.6976
arks	-12.6994
dg	-12.7008
pl	-12.7086
xt	-12.7145
sence	-12.7163
▁endea	-12.7215
ication	-12.7231
ady	-12.7257
Mi	-12.7273
itr	-12.729
inging	-12.73
▁Sha	-12.7372
▁redd	-12.7381
mon	-12.7412
signe	-12.742
▁pe	-12.7454
▁crie	-12.7471
rayed	-12.7486
rides	-12.7589
▁unsu	-12.7605
erced	-12.7606
hem	-12.7611
tak	-12.7614
ended	-12.7627
ambl	-12.7659
kti	-12.7719
▁respon	-12.7739
hone	-12.7742
▁captiv	-12.7743
raw	-12.7776
del	-12.779
--------	-12.7805
▁woode	-12.7832
tast	-12.7843
▁sil	-12.7872
▁pers	-12.7934
chin	-12.7954
nct	-12.7986
ross	-12.8124
▁toleran	-12.8129
▁bec	-12.8145
welling	-12.8178
Set	-12.8202
ann	-12.8291
rrent	-12.8302
car	-12.8343
▁sn	-12.8346
terna	-12.8349
ppearing	-12.8373
go	-12.8401
sur	-12.8406
▁att	-12.8418
▁ende	-12.8478
stable	-12.8506
▁outs	-12.8513
uded	-12.8568
▁Jan	-12.857
ram	-12.8658
igh	-12.8664
nstantly	-12.8668
andodari	-12.8675
hor	-12.8678
ise	-12.8721
hreaten	-12.8795
ists	-12.8795
rue	-12.8977
tuat	-12.9099
sides	-12.91
enced	-12.9114
ontin	-12.912
▁wav	-12.9125
▁pi	-12.9145
yed	-12.9155
ass	-12.9199
hest	-12.9199
ishes	-12.921
▁collecti	-12.9236
ancie	-12.9236
val	-12.9289
discr	-12.9305
greed	-12.934
auge	-12.9349
dient	-12.9376
▁ang	-12.9407
lla	-12.947
ail	-12.9486
ots	-12.9495
rut	-12.9513
▁sob	-12.9513
onvey	-12.9544
gu	-12.9569
lapse	-12.9583
han	-12.9637
▁Sit	-12.9661
▁Sc	-12.9692
Ro	-12.9704
▁proce	-12.9706
ieg	-12.9708
size	-12.9715
aks	-12.9722
min	-12.9722
ders	-12.9727
qu	-12.978
▁sci	-12.9788
eflecti	-12.9811
vade	-12.9864
mili	-12.9869
ires	-12.9925
natur	-12.9929
▁lu	-12.993
▁mor	-13.0013
adily	-13.0184
onm	-13.02
unken	-13.0281
rred	-13.0287
etter	-13.0295
▁earne	-13.0307
solution	-13.0331
erefore	-13.045
▁Fur	-13.0462
▁ap	-13.0532
ify	-13.0534
andha	-13.0572
nst	-13.0577
ime	-13.0578
Bl	-13.0584
pes	-13.0639
mount	-13.0643
Mar	-13.0679
sta	-13.0714
get	-13.0763
ign	-13.0836
ith	-13.0859
▁performe	-13.0875
ims	-13.0955
▁threa	-13.1077
tas	-13.1207
state	-13.124
bea	-13.1262
▁ea	-13.1361
hough	-13.1416
ault	-13.1457
Ch	-13.1475
owers	-13.1512
rac	-13.1685
fair	-13.1714
seu	-13.1781
haken	-13.1818
oman	-13.183
hout	-13.1846
▁earsh	-13.1877
edic	-13.1887
imm	-13.1913
▁exha	-13.1943
atabl	-13.196
olation	-13.2016
mult	-13.2091
ening	-13.2103
ac	-13.2124
▁underg	-13.2133
housand	-13.2134
assionate	-13.223
▁ward	-13.2299
mer	-13.2304
▁pra	-13.2315
▁stru	-13.2412
una	-13.2436
andak	-13.2441
Un	-13.2478
nee	-13.255
roud	-13.2572
asts	-13.2606
ss	-13.2767
▁Ya	-13.2785
hea	-13.2793
olv	-13.2794
Wi	-13.2808
eassur	-13.2863
▁loa	-13.2941
ssion	-13.2977
hum	-13.3
▁Roa	-13.3015
▁igno	-13.3063
enge	-13.3064
arted	-13.3083
oble	-13.3094
▁thi	-13.3108
sib	-13.311
gur	-13.3167
up	-13.3177
aja	-13.3229
ug	-13.3235
vol	-13.3235
▁cau	-13.3274
render	-13.3286
▁Lan	-13.3312
arch	-13.3316
▁reve	-13.3341
aya	-13.3394
see	-13.3404
ppy	-13.3504
ffl	-13.3511
▁matche	-13.3523
▁incomp	-13.3532
tan	-13.3586
erve	-13.3621
ooking	-13.3676
▁griev	-13.3723
▁assur	-13.3775
train	-13.385
Sa	-13.3851
Chait	-13.3875
ser	-13.3879
akin	-13.3886
ept	-13.3887
▁irre	-13.3895
purn	-13.3926
ldly	-13.3946
ndan	-13.399
ou	-13.4171
ased	-13.4175
eet	-13.4204
▁wither	-13.4223
nnaga	-13.4297
▁ins	-13.4306
▁flu	-13.4381
▁wre	-13.444
▁Ou	-13.4482
kills	-13.4486
Ever	-13.4511
wning	-13.4584
loma	-13.4666
unger	-13.4713
mmand	-13.4755
hide	-13.485
▁gree	-13.4878
hinking	-13.4894
erly	-13.5011
▁unw	-13.5014
▁spl	-13.5129
oxi	-13.5137
▁outst	-13.5169
lme	-13.5187
qui	-13.519
bellie	-13.519
ism	-13.5196
sp	-13.5233
sist	-13.5253
tu	-13.5344
ssure	-13.5428
achin	-13.5432
sie	-13.5435
rch	-13.5442
▁inse	-13.5466
mol	-13.5517
ather	-13.5521
emind	-13.5552
ega	-13.5602
ues	-13.5611
rip	-13.5703
edge	-13.574
com	-13.5744
anding	-13.58
nabha	-13.58
rtak	-13.5811
▁underst	-13.5878
stin	-13.5912
irst	-13.5936
Batt	-13.5959
aityas	-13.5975
▁em	-13.6051
bow	-13.607
▁mur	-13.6099
elp	-13.6133
rt	-13.6163
ript	-13.6237
ompar	-13.6253
aste	-13.6278
anti	-13.6299
wast	-13.6311
▁Se	-13.6337
rid	-13.6348
▁cos	-13.6415
ucin	-13.6493
port	-13.6497
▁har	-13.6521
▁consci	-13.6568
umbe	-13.6669
▁lin	-13.672
norm	-13.6723
iment	-13.6737
ends	-13.6762
rove	-13.677
Te	-13.6787
▁cond	-13.6789
os	-13.6797
reserve	-13.6903
▁bowe	-13.7023
walk	-13.71
dings	-13.7123
ki	-13.7147
pie	-13.7154
nim	-13.7231
▁ya	-13.733
▁decorati	-13.7332
ealt	-13.7453
▁Ar	-13.7593
ratha	-13.764
▁crea	-13.7661
gro	-13.7688
eries	-13.77
tedly	-13.7717
ff	-13.7726
itted	-13.773
▁cho	-13.7755
mens	-13.7809
ilable	-13.7811
leve	-13.7883
escribed	-13.794
▁Li	-13.7956
ives	-13.8005
too	-13.8044
cline	-13.8096
sag	-13.816
▁ridi	-13.8168
▁firefl	-13.8197
strated	-13.8216
▁sol	-13.8219
▁rel	-13.8291
evell	-13.8412
▁permi	-13.8506
htra	-13.8517
▁countr	-13.8595
laws	-13.8648
disc	-13.8687
Vi	-13.869
▁dropp	-13.8732
▁grea	-13.8734
▁marke	-13.8918
comm	-13.9019
rful	-13.9021
Sh	-13.9092
fur	-13.9222
etent	-13.9241
arana	-13.9251
nak	-13.9253
dha	-13.9324
tho	-13.9367
▁int	-13.937
mmo	-13.9384
equ	-13.9431
attered	-13.9515
inger	-13.9539
▁incen	-13.9549
▁unt	-13.9563
▁tal	-13.9567
nds	-13.9591
tered	-13.9708
ools	-13.98
dang	-13.9805
events	-13.9805
selessly	-13.9891
oil	-13.9942
▁fin	-14.0032
▁sti	-14.0057
uled	-14.0058
ris	-14.0095
▁veri	-14.0106
akes	-14.0108
ldered	-14.011
scen	-14.0114
Desc	-14.0124
oaring	-14.0172
num	-14.0261
no	-14.0265
▁plat	-14.0266
▁que	-14.0279
hil	-14.0321
▁hal	-14.0352
iously	-14.0382
▁protecti	-14.0395
vi	-14.0434
mud	-14.0489
hief	-14.0554
nts	-14.0597
▁scan	-14.0598
dows	-14.0614
▁Ind	-14.0669
dar	-14.07
ited	-14.0724
▁sou	-14.0746
part	-14.0823
ntra	-14.0841
utra	-14.094
uti	-14.0958
▁stu	-14.0971
iven	-14.1093
tness	-14.1136
▁dia	-14.1147
▁rou	-14.126
ci	-14.1329
stat	-14.1346
arri	-14.1456
glances	-14.1483
houlders	-14.1487
clin	-14.1537
▁thron	-14.1688
▁showe	-14.1833
reats	-14.186
tten	-14.2216
▁conc	-14.224
clos	-14.2402
▁kit	-14.2415
lashes	-14.2434
mayan	-14.246
reet	-14.2539
rav	-14.2611
hwa	-14.2625
ggest	-14.2657
proach	-14.2679
bl	-14.2685
inab	-14.2747
▁Tor	-14.28
wee	-14.2824
rged	-14.2827
thusias	-14.285
sture	-14.2918
cula	-14.2927
▁impri	-14.295
▁shou	-14.2961
rud	-14.2964
ern	-14.2987
itori	-14.3016
spicious	-14.3117
▁delic	-14.3125
pened	-14.3127
▁sli	-14.3158
evi	-14.3158
oration	-14.32
lant	-14.3249
dst	-14.3255
ghing	-14.3282
ea	-14.3283
▁appro	-14.34
ences	-14.3411
urned	-14.3417
arrie	-14.3419
ai	-14.3437
nife	-14.347
acts	-14.3517
▁servi	-14.3536
nci	-14.3767
but	-14.3783
▁bon	-14.3876
swer	-14.4003
til	-14.4029
▁proc	-14.4054
evol	-14.4101
ods	-14.416
xe	-14.4188
uc	-14.4193
astra	-14.4211
ench	-14.4227
ushe	-14.4262
▁sta	-14.4315
severa	-14.4383
ears	-14.4421
ecline	-14.4453
eeping	-14.4462
mida	-14.4557
karn	-14.4558
nging	-14.4564
▁Sw	-14.4565
▁kni	-14.4766
solate	-14.4883
toes	-14.4901
▁ign	-14.5056
stly	-14.5079
ntin	-14.5134
bre	-14.5156
cr	-14.5183
▁sing	-14.5195
▁id	-14.5241
▁Po	-14.5327
dea	-14.5399
▁wave	-14.5436
ndering	-14.5447
sight	-14.545
▁kille	-14.5528
inge	-14.5578
▁offe	-14.5593
tend	-14.5593
▁tol	-14.5648
ovi	-14.5891
uched	-14.5932
▁ser	-14.6091
ctive	-14.6158
lds	-14.6159
▁inst	-14.6177
egat	-14.6349
tation	-14.6395
serv	-14.6412
▁emi	-14.643
due	-14.644
resent	-14.6444
rtificial	-14.6487
mat	-14.6528
assi	-14.6558
gic	-14.6604
quat	-14.6671
▁passi	-14.671
fourt	-14.6751
refer	-14.6785
▁wal	-14.6915
eads	-14.6932
shya	-14.6934
erce	-14.6941
raja	-14.7015
nit	-14.7134
ively	-14.7173
shva	-14.718
ms	-14.7206
▁prop	-14.7281
▁reta	-14.7306
earn	-14.7335
ndra	-14.7448
owever	-14.7485
verything	-14.7565
everberati	-14.7616
[	-14.8147
z	-14.8148
G	-14.8149
q	-14.815
